#include "magic_wand_model_data.h"

// We need to keep the data array aligned on some architectures.
#ifdef __has_attribute
#define HAVE_ATTRIBUTE(x) __has_attribute(x)
#else
#define HAVE_ATTRIBUTE(x) 0
#endif
#if HAVE_ATTRIBUTE(aligned) || (defined(__GNUC__) && !defined(__clang__))
#define DATA_ALIGN_ATTRIBUTE __attribute__((aligned(4)))
#else
#define DATA_ALIGN_ATTRIBUTE
#endif

const unsigned char g_magic_wand_model_data[] DATA_ALIGN_ATTRIBUTE = {
  0x1c, 0x00, 0x00, 0x00, 0x54, 0x46, 0x4c, 0x33, 0x14, 0x00, 0x20, 0x00,
  0x04, 0x00, 0x08, 0x00, 0x0c, 0x00, 0x10, 0x00, 0x14, 0x00, 0x00, 0x00,
  0x18, 0x00, 0x1c, 0x00, 0x14, 0x00, 0x00, 0x00, 0x03, 0x00, 0x00, 0x00,
  0x18, 0x00, 0x00, 0x00, 0x2c, 0x00, 0x00, 0x00, 0xd8, 0x00, 0x00, 0x00,
  0x2c, 0x00, 0x00, 0x00, 0x80, 0x00, 0x00, 0x00, 0x78, 0x00, 0x00, 0x00,
  0x05, 0x00, 0x00, 0x00, 0x28, 0x07, 0x00, 0x00, 0x44, 0x06, 0x00, 0x00,
  0xbc, 0x03, 0x00, 0x00, 0xf8, 0x02, 0x00, 0x00, 0xac, 0x01, 0x00, 0x00,
  0x01, 0x00, 0x00, 0x00, 0xd0, 0x00, 0x00, 0x00, 0x14, 0x00, 0x00, 0x00,
  0x98, 0x32, 0x00, 0x00, 0x94, 0x32, 0x00, 0x00, 0x8c, 0x31, 0x00, 0x00,
  0xd8, 0x30, 0x00, 0x00, 0x30, 0x30, 0x00, 0x00, 0xbc, 0x2f, 0x00, 0x00,
  0x50, 0x2f, 0x00, 0x00, 0x00, 0x13, 0x00, 0x00, 0xec, 0x11, 0x00, 0x00,
  0x10, 0x10, 0x00, 0x00, 0xb4, 0x07, 0x00, 0x00, 0x6c, 0x32, 0x00, 0x00,
  0x68, 0x32, 0x00, 0x00, 0x64, 0x32, 0x00, 0x00, 0x60, 0x32, 0x00, 0x00,
  0x5c, 0x32, 0x00, 0x00, 0x58, 0x32, 0x00, 0x00, 0x54, 0x32, 0x00, 0x00,
  0x50, 0x32, 0x00, 0x00, 0x3c, 0x00, 0x00, 0x00, 0x00, 0x00, 0x00, 0x00,
  0x01, 0x00, 0x00, 0x00, 0x0c, 0x00, 0x00, 0x00, 0x08, 0x00, 0x0c, 0x00,
  0x04, 0x00, 0x08, 0x00, 0x08, 0x00, 0x00, 0x00, 0x08, 0x00, 0x00, 0x00,
  0x13, 0x00, 0x00, 0x00, 0x13, 0x00, 0x00, 0x00, 0x6d, 0x69, 0x6e, 0x5f,
  0x72, 0x75, 0x6e, 0x74, 0x69, 0x6d, 0x65, 0x5f, 0x76, 0x65, 0x72, 0x73,
  0x69, 0x6f, 0x6e, 0x00, 0xfa, 0xce, 0xff, 0xff, 0x04, 0x00, 0x00, 0x00,
  0x10, 0x00, 0x00, 0x00, 0x31, 0x2e, 0x35, 0x2e, 0x30, 0x00, 0x00, 0x00,
  0x00, 0x00, 0x00, 0x00, 0x00, 0x00, 0x00, 0x00, 0x0f, 0x00, 0x00, 0x00,
  0x4d, 0x4c, 0x49, 0x52, 0x20, 0x43, 0x6f, 0x6e, 0x76, 0x65, 0x72, 0x74,
  0x65, 0x64, 0x2e, 0x00, 0x00, 0x00, 0x0e, 0x00, 0x18, 0x00, 0x04, 0x00,
  0x08, 0x00, 0x0c, 0x00, 0x10, 0x00, 0x14, 0x00, 0x0e, 0x00, 0x00, 0x00,
  0x14, 0x00, 0x00, 0x00, 0x5c, 0x00, 0x00, 0x00, 0x60, 0x00, 0x00, 0x00,
  0x64, 0x00, 0x00, 0x00, 0x84, 0x00, 0x00, 0x00, 0x12, 0x00, 0x00, 0x00,
  0x58, 0x31, 0x00, 0x00, 0xe8, 0x30, 0x00, 0x00, 0x44, 0x30, 0x00, 0x00,
  0x9c, 0x2f, 0x00, 0x00, 0xf4, 0x2e, 0x00, 0x00, 0x94, 0x2e, 0x00, 0x00,
  0x2c, 0x2e, 0x00, 0x00, 0xd8, 0x11, 0x00, 0x00, 0xbc, 0x10, 0x00, 0x00,
  0xe0, 0x0e, 0x00, 0x00, 0x0c, 0x06, 0x00, 0x00, 0x28, 0x05, 0x00, 0x00,
  0xe8, 0x03, 0x00, 0x00, 0x3c, 0x03, 0x00, 0x00, 0x98, 0x02, 0x00, 0x00,
  0xd4, 0x01, 0x00, 0x00, 0x10, 0x01, 0x00, 0x00, 0x84, 0x00, 0x00, 0x00,
  0x01, 0x00, 0x00, 0x00, 0x00, 0x00, 0x00, 0x00, 0x01, 0x00, 0x00, 0x00,
  0x11, 0x00, 0x00, 0x00, 0x08, 0x00, 0x00, 0x00, 0x74, 0x05, 0x00, 0x00,
  0x94, 0x04, 0x00, 0x00, 0x78, 0x03, 0x00, 0x00, 0xbc, 0x02, 0x00, 0x00,
  0x30, 0x02, 0x00, 0x00, 0x50, 0x01, 0x00, 0x00, 0xa8, 0x00, 0x00, 0x00,
  0x10, 0x00, 0x00, 0x00, 0x04, 0x00, 0x00, 0x00, 0x6d, 0x61, 0x69, 0x6e,
  0x00, 0x00, 0x00, 0x00, 0x7a, 0xff, 0xff, 0xff, 0x00, 0x00, 0x00, 0x09,
  0x04, 0x00, 0x00, 0x00, 0x1c, 0x00, 0x00, 0x00, 0x10, 0x00, 0x00, 0x00,
  0x04, 0x00, 0x00, 0x00, 0xf6, 0xcf, 0xff, 0xff, 0x00, 0x00, 0x80, 0x3f,
  0x01, 0x00, 0x00, 0x00, 0x11, 0x00, 0x00, 0x00, 0x01, 0x00, 0x00, 0x00,
  0x10, 0x00, 0x00, 0x00, 0xa0, 0xfa, 0xff, 0xff, 0x19, 0x00, 0x00, 0x00,
  0x00, 0x00, 0x00, 0x19, 0x01, 0x00, 0x00, 0x00, 0x84, 0xcf, 0xff, 0xff,
  0x14, 0x00, 0x00, 0x00, 0x12, 0x00, 0x00, 0x00, 0x18, 0x00, 0x00, 0x00,
  0x30, 0x00, 0x00, 0x00, 0x20, 0x00, 0x00, 0x00, 0x02, 0x00, 0x00, 0x00,
  0x01, 0x00, 0x00, 0x00, 0x03, 0x00, 0x00, 0x00, 0x08, 0x00, 0x00, 0x00,
  0x49, 0x64, 0x65, 0x6e, 0x74, 0x69, 0x74, 0x79, 0x00, 0x00, 0x00, 0x00,
  0x02, 0x00, 0x00, 0x00, 0xff, 0xff, 0xff, 0xff, 0x03, 0x00, 0x00, 0x00,
  0x68, 0xd0, 0xff, 0xff, 0x00, 0x00, 0x0e, 0x00, 0x18, 0x00, 0x08, 0x00,
  0x0c, 0x00, 0x10, 0x00, 0x07, 0x00, 0x14, 0x00, 0x0e, 0x00, 0x00, 0x00,
  0x00, 0x00, 0x00, 0x08, 0x03, 0x00, 0x00, 0x00, 0x18, 0x00, 0x00, 0x00,
  0x0c, 0x00, 0x00, 0x00, 0x04, 0x00, 0x00, 0x00, 0x84, 0xcf, 0xff, 0xff,
  0x01, 0x00, 0x00, 0x00, 0x10, 0x00, 0x00, 0x00, 0x03, 0x00, 0x00, 0x00,
  0x0f, 0x00, 0x00, 0x00, 0x07, 0x00, 0x00, 0x00, 0x04, 0x00, 0x00, 0x00,
  0x0c, 0xd0, 0xff, 0xff, 0x14, 0x00, 0x00, 0x00, 0x11, 0x00, 0x00, 0x00,
  0x18, 0x00, 0x00, 0x00, 0x5c, 0x00, 0x00, 0x00, 0x4c, 0x00, 0x00, 0x00,
  0x02, 0x00, 0x00, 0x00, 0x01, 0x00, 0x00, 0x00, 0x03, 0x00, 0x00, 0x00,
  0x34, 0x00, 0x00, 0x00, 0x73, 0x65, 0x71, 0x75, 0x65, 0x6e, 0x74, 0x69,
  0x61, 0x6c, 0x2f, 0x64, 0x65, 0x6e, 0x73, 0x65, 0x5f, 0x31, 0x2f, 0x4d,
  0x61, 0x74, 0x4d, 0x75, 0x6c, 0x3b, 0x73, 0x65, 0x71, 0x75, 0x65, 0x6e,
  0x74, 0x69, 0x61, 0x6c, 0x2f, 0x64, 0x65, 0x6e, 0x73, 0x65, 0x5f, 0x31,
  0x2f, 0x42, 0x69, 0x61, 0x73, 0x41, 0x64, 0x64, 0x00, 0x00, 0x00, 0x00,
  0x02, 0x00, 0x00, 0x00, 0xff, 0xff, 0xff, 0xff, 0x03, 0x00, 0x00, 0x00,
  0x0c, 0xd0, 0xff, 0xff, 0xda, 0xfc, 0xff, 0xff, 0x00, 0x00, 0x00, 0x08,
  0x03, 0x00, 0x00, 0x00, 0x24, 0x00, 0x00, 0x00, 0x18, 0x00, 0x00, 0x00,
  0x0c, 0x00, 0x00, 0x00, 0x00, 0x00, 0x06, 0x00, 0x08, 0x00, 0x07, 0x00,
  0x06, 0x00, 0x00, 0x00, 0x00, 0x00, 0x00, 0x01, 0x01, 0x00, 0x00, 0x00,
  0x0f, 0x00, 0x00, 0x00, 0x03, 0x00, 0x00, 0x00, 0x0e, 0x00, 0x00, 0x00,
  0x06, 0x00, 0x00, 0x00, 0x03, 0x00, 0x00, 0x00, 0xe8, 0xfb, 0xff, 0xff,
  0x09, 0x00, 0x00, 0x00, 0x00, 0x00, 0x00, 0x09, 0x01, 0x00, 0x00, 0x00,
  0xcc, 0xd0, 0xff, 0xff, 0x14, 0x00, 0x00, 0x00, 0x10, 0x00, 0x00, 0x00,
  0x18, 0x00, 0x00, 0x00, 0x6c, 0x00, 0x00, 0x00, 0x5c, 0x00, 0x00, 0x00,
  0x02, 0x00, 0x00, 0x00, 0x01, 0x00, 0x00, 0x00, 0x10, 0x00, 0x00, 0x00,
  0x46, 0x00, 0x00, 0x00, 0x73, 0x65, 0x71, 0x75, 0x65, 0x6e, 0x74, 0x69,
  0x61, 0x6c, 0x2f, 0x64, 0x65, 0x6e, 0x73, 0x65, 0x2f, 0x4d, 0x61, 0x74,
  0x4d, 0x75, 0x6c, 0x3b, 0x73, 0x65, 0x71, 0x75, 0x65, 0x6e, 0x74, 0x69,
  0x61, 0x6c, 0x2f, 0x64, 0x65, 0x6e, 0x73, 0x65, 0x2f, 0x52, 0x65, 0x6c,
  0x75, 0x3b, 0x73, 0x65, 0x71, 0x75, 0x65, 0x6e, 0x74, 0x69, 0x61, 0x6c,
  0x2f, 0x64, 0x65, 0x6e, 0x73, 0x65, 0x2f, 0x42, 0x69, 0x61, 0x73, 0x41,
  0x64, 0x64, 0x00, 0x00, 0x02, 0x00, 0x00, 0x00, 0xff, 0xff, 0xff, 0xff,
  0x10, 0x00, 0x00, 0x00, 0xec, 0xd1, 0xff, 0xff, 0x00, 0x00, 0x0a, 0x00,
  0x10, 0x00, 0x04, 0x00, 0x08, 0x00, 0x0c, 0x00, 0x0a, 0x00, 0x00, 0x00,
  0x02, 0x00, 0x00, 0x00, 0x10, 0x00, 0x00, 0x00, 0x04, 0x00, 0x00, 0x00,
  0x01, 0x00, 0x00, 0x00, 0x0e, 0x00, 0x00, 0x00, 0x02, 0x00, 0x00, 0x00,
  0x0d, 0x00, 0x00, 0x00, 0x05, 0x00, 0x00, 0x00, 0xa8, 0xfc, 0xff, 0xff,
  0x16, 0x00, 0x00, 0x00, 0x00, 0x00, 0x00, 0x16, 0x01, 0x00, 0x00, 0x00,
  0x8c, 0xd1, 0xff, 0xff, 0x14, 0x00, 0x00, 0x00, 0x0f, 0x00, 0x00, 0x00,
  0x18, 0x00, 0x00, 0x00, 0x40, 0x00, 0x00, 0x00, 0x30, 0x00, 0x00, 0x00,
  0x02, 0x00, 0x00, 0x00, 0x01, 0x00, 0x00, 0x00, 0x70, 0x00, 0x00, 0x00,
  0x1a, 0x00, 0x00, 0x00, 0x73, 0x65, 0x71, 0x75, 0x65, 0x6e, 0x74, 0x69,
  0x61, 0x6c, 0x2f, 0x66, 0x6c, 0x61, 0x74, 0x74, 0x65, 0x6e, 0x2f, 0x52,
  0x65, 0x73, 0x68, 0x61, 0x70, 0x65, 0x00, 0x00, 0x02, 0x00, 0x00, 0x00,
  0xff, 0xff, 0xff, 0xff, 0x70, 0x00, 0x00, 0x00, 0x70, 0xd1, 0xff, 0xff,
  0x3e, 0xfe, 0xff, 0xff, 0x00, 0x00, 0x00, 0x05, 0x01, 0x00, 0x00, 0x00,
  0x38, 0x00, 0x00, 0x00, 0x2c, 0x00, 0x00, 0x00, 0x14, 0x00, 0x00, 0x00,
  0x00, 0x00, 0x0e, 0x00, 0x14, 0x00, 0x00, 0x00, 0x10, 0x00, 0x0c, 0x00,
  0x08, 0x00, 0x04, 0x00, 0x0e, 0x00, 0x00, 0x00, 0x03, 0x00, 0x00, 0x00,
  0x01, 0x00, 0x00, 0x00, 0x03, 0x00, 0x00, 0x00, 0x01, 0x00, 0x00, 0x00,
  0x01, 0x00, 0x00, 0x00, 0x0d, 0x00, 0x00, 0x00, 0x01, 0x00, 0x00, 0x00,
  0x0c, 0x00, 0x00, 0x00, 0x2c, 0xd2, 0xff, 0xff, 0x14, 0x00, 0x00, 0x00,
  0x0e, 0x00, 0x00, 0x00, 0x20, 0x00, 0x00, 0x00, 0x58, 0x00, 0x00, 0x00,
  0x40, 0x00, 0x00, 0x00, 0x04, 0x00, 0x00, 0x00, 0x01, 0x00, 0x00, 0x00,
  0x07, 0x00, 0x00, 0x00, 0x01, 0x00, 0x00, 0x00, 0x10, 0x00, 0x00, 0x00,
  0x22, 0x00, 0x00, 0x00, 0x73, 0x65, 0x71, 0x75, 0x65, 0x6e, 0x74, 0x69,
  0x61, 0x6c, 0x2f, 0x6d, 0x61, 0x78, 0x5f, 0x70, 0x6f, 0x6f, 0x6c, 0x69,
  0x6e, 0x67, 0x32, 0x64, 0x5f, 0x31, 0x2f, 0x4d, 0x61, 0x78, 0x50, 0x6f,
  0x6f, 0x6c, 0x00, 0x00, 0x04, 0x00, 0x00, 0x00, 0xff, 0xff, 0xff, 0xff,
  0x07, 0x00, 0x00, 0x00, 0x01, 0x00, 0x00, 0x00, 0x10, 0x00, 0x00, 0x00,
  0x28, 0xd2, 0xff, 0xff, 0x1a, 0xfe, 0xff, 0xff, 0x00, 0x00, 0x00, 0x01,
  0x24, 0x00, 0x00, 0x00, 0x18, 0x00, 0x00, 0x00, 0x04, 0x00, 0x00, 0x00,
  0x0c, 0xfe, 0xff, 0xff, 0x01, 0x00, 0x00, 0x00, 0x01, 0x00, 0x00, 0x00,
  0x00, 0x00, 0x00, 0x01, 0x01, 0x00, 0x00, 0x00, 0x0c, 0x00, 0x00, 0x00,
  0x03, 0x00, 0x00, 0x00, 0x0b, 0x00, 0x00, 0x00, 0x09, 0x00, 0x00, 0x00,
  0x02, 0x00, 0x00, 0x00, 0xd4, 0xd2, 0xff, 0xff, 0x14, 0x00, 0x00, 0x00,
  0x0d, 0x00, 0x00, 0x00, 0x20, 0x00, 0x00, 0x00, 0xb8, 0x00, 0x00, 0x00,
  0xa0, 0x00, 0x00, 0x00, 0x04, 0x00, 0x00, 0x00, 0x01, 0x00, 0x00, 0x00,
  0x15, 0x00, 0x00, 0x00, 0x01, 0x00, 0x00, 0x00, 0x10, 0x00, 0x00, 0x00,
  0x83, 0x00, 0x00, 0x00, 0x73, 0x65, 0x71, 0x75, 0x65, 0x6e, 0x74, 0x69,
  0x61, 0x6c, 0x2f, 0x63, 0x6f, 0x6e, 0x76, 0x32, 0x64, 0x5f, 0x31, 0x2f,
  0x52, 0x65, 0x6c, 0x75, 0x3b, 0x73, 0x65, 0x71, 0x75, 0x65, 0x6e, 0x74,
  0x69, 0x61, 0x6c, 0x2f, 0x63, 0x6f, 0x6e, 0x76, 0x32, 0x64, 0x5f, 0x31,
  0x2f, 0x42, 0x69, 0x61, 0x73, 0x41, 0x64, 0x64, 0x3b, 0x73, 0x65, 0x71,
  0x75, 0x65, 0x6e, 0x74, 0x69, 0x61, 0x6c, 0x2f, 0x63, 0x6f, 0x6e, 0x76,
  0x32, 0x64, 0x5f, 0x31, 0x2f, 0x43, 0x6f, 0x6e, 0x76, 0x32, 0x44, 0x3b,
  0x73, 0x65, 0x71, 0x75, 0x65, 0x6e, 0x74, 0x69, 0x61, 0x6c, 0x2f, 0x63,
  0x6f, 0x6e, 0x76, 0x32, 0x64, 0x5f, 0x31, 0x2f, 0x42, 0x69, 0x61, 0x73,
  0x41, 0x64, 0x64, 0x2f, 0x52, 0x65, 0x61, 0x64, 0x56, 0x61, 0x72, 0x69,
  0x61, 0x62, 0x6c, 0x65, 0x4f, 0x70, 0x2f, 0x72, 0x65, 0x73, 0x6f, 0x75,
  0x72, 0x63, 0x65, 0x00, 0x04, 0x00, 0x00, 0x00, 0xff, 0xff, 0xff, 0xff,
  0x15, 0x00, 0x00, 0x00, 0x01, 0x00, 0x00, 0x00, 0x10, 0x00, 0x00, 0x00,
  0x40, 0xd4, 0xff, 0xff, 0x00, 0x00, 0x0e, 0x00, 0x1a, 0x00, 0x08, 0x00,
  0x0c, 0x00, 0x10, 0x00, 0x07, 0x00, 0x14, 0x00, 0x0e, 0x00, 0x00, 0x00,
  0x00, 0x00, 0x00, 0x05, 0x01, 0x00, 0x00, 0x00, 0x3c, 0x00, 0x00, 0x00,
  0x30, 0x00, 0x00, 0x00, 0x14, 0x00, 0x00, 0x00, 0x00, 0x00, 0x0e, 0x00,
  0x18, 0x00, 0x17, 0x00, 0x10, 0x00, 0x0c, 0x00, 0x08, 0x00, 0x04, 0x00,
  0x0e, 0x00, 0x00, 0x00, 0x03, 0x00, 0x00, 0x00, 0x03, 0x00, 0x00, 0x00,
  0x03, 0x00, 0x00, 0x00, 0x03, 0x00, 0x00, 0x00, 0x00, 0x00, 0x00, 0x01,
  0x01, 0x00, 0x00, 0x00, 0x0b, 0x00, 0x00, 0x00, 0x01, 0x00, 0x00, 0x00,
  0x0a, 0x00, 0x00, 0x00, 0x2c, 0xff, 0xff, 0xff, 0x11, 0x00, 0x00, 0x00,
  0x00, 0x00, 0x00, 0x11, 0x01, 0x00, 0x00, 0x00, 0x10, 0xd4, 0xff, 0xff,
  0x14, 0x00, 0x00, 0x00, 0x0c, 0x00, 0x00, 0x00, 0x20, 0x00, 0x00, 0x00,
  0x58, 0x00, 0x00, 0x00, 0x40, 0x00, 0x00, 0x00, 0x04, 0x00, 0x00, 0x00,
  0x01, 0x00, 0x00, 0x00, 0x15, 0x00, 0x00, 0x00, 0x01, 0x00, 0x00, 0x00,
  0x08, 0x00, 0x00, 0x00, 0x20, 0x00, 0x00, 0x00, 0x73, 0x65, 0x71, 0x75,
  0x65, 0x6e, 0x74, 0x69, 0x61, 0x6c, 0x2f, 0x6d, 0x61, 0x78, 0x5f, 0x70,
  0x6f, 0x6f, 0x6c, 0x69, 0x6e, 0x67, 0x32, 0x64, 0x2f, 0x4d, 0x61, 0x78,
  0x50, 0x6f, 0x6f, 0x6c, 0x00, 0x00, 0x00, 0x00, 0x04, 0x00, 0x00, 0x00,
  0xff, 0xff, 0xff, 0xff, 0x15, 0x00, 0x00, 0x00, 0x01, 0x00, 0x00, 0x00,
  0x08, 0x00, 0x00, 0x00, 0x1c, 0xd5, 0xff, 0xff, 0x00, 0x00, 0x0e, 0x00,
  0x14, 0x00, 0x00, 0x00, 0x08, 0x00, 0x0c, 0x00, 0x07, 0x00, 0x10, 0x00,
  0x0e, 0x00, 0x00, 0x00, 0x00, 0x00, 0x00, 0x01, 0x30, 0x00, 0x00, 0x00,
  0x24, 0x00, 0x00, 0x00, 0x10, 0x00, 0x00, 0x00, 0x0c, 0x00, 0x10, 0x00,
  0x00, 0x00, 0x04, 0x00, 0x08, 0x00, 0x0f, 0x00, 0x0c, 0x00, 0x00, 0x00,
  0x01, 0x00, 0x00, 0x00, 0x01, 0x00, 0x00, 0x00, 0x00, 0x00, 0x00, 0x01,
  0x01, 0x00, 0x00, 0x00, 0x0a, 0x00, 0x00, 0x00, 0x03, 0x00, 0x00, 0x00,
  0x00, 0x00, 0x00, 0x00, 0x08, 0x00, 0x00, 0x00, 0x01, 0x00, 0x00, 0x00,
  0x0c, 0x00, 0x10, 0x00, 0x0b, 0x00, 0x00, 0x00, 0x0c, 0x00, 0x04, 0x00,
  0x0c, 0x00, 0x00, 0x00, 0x03, 0x00, 0x00, 0x00, 0x00, 0x00, 0x00, 0x03,
  0x01, 0x00, 0x00, 0x00, 0xf0, 0xd4, 0xff, 0xff, 0x14, 0x00, 0x00, 0x00,
  0x0b, 0x00, 0x00, 0x00, 0x20, 0x00, 0x00, 0x00, 0xb0, 0x00, 0x00, 0x00,
  0x98, 0x00, 0x00, 0x00, 0x04, 0x00, 0x00, 0x00, 0x01, 0x00, 0x00, 0x00,
  0x40, 0x00, 0x00, 0x00, 0x03, 0x00, 0x00, 0x00, 0x08, 0x00, 0x00, 0x00,
  0x7b, 0x00, 0x00, 0x00, 0x73, 0x65, 0x71, 0x75, 0x65, 0x6e, 0x74, 0x69,
  0x61, 0x6c, 0x2f, 0x63, 0x6f, 0x6e, 0x76, 0x32, 0x64, 0x2f, 0x52, 0x65,
  0x6c, 0x75, 0x3b, 0x73, 0x65, 0x71, 0x75, 0x65, 0x6e, 0x74, 0x69, 0x61,
  0x6c, 0x2f, 0x63, 0x6f, 0x6e, 0x76, 0x32, 0x64, 0x2f, 0x42, 0x69, 0x61,
  0x73, 0x41, 0x64, 0x64, 0x3b, 0x73, 0x65, 0x71, 0x75, 0x65, 0x6e, 0x74,
  0x69, 0x61, 0x6c, 0x2f, 0x63, 0x6f, 0x6e, 0x76, 0x32, 0x64, 0x2f, 0x43,
  0x6f, 0x6e, 0x76, 0x32, 0x44, 0x3b, 0x73, 0x65, 0x71, 0x75, 0x65, 0x6e,
  0x74, 0x69, 0x61, 0x6c, 0x2f, 0x63, 0x6f, 0x6e, 0x76, 0x32, 0x64, 0x2f,
  0x42, 0x69, 0x61, 0x73, 0x41, 0x64, 0x64, 0x2f, 0x52, 0x65, 0x61, 0x64,
  0x56, 0x61, 0x72, 0x69, 0x61, 0x62, 0x6c, 0x65, 0x4f, 0x70, 0x2f, 0x72,
  0x65, 0x73, 0x6f, 0x75, 0x72, 0x63, 0x65, 0x00, 0x04, 0x00, 0x00, 0x00,
  0xff, 0xff, 0xff, 0xff, 0x40, 0x00, 0x00, 0x00, 0x03, 0x00, 0x00, 0x00,
  0x08, 0x00, 0x00, 0x00, 0x44, 0xd5, 0xff, 0xff, 0x4e, 0xd6, 0xff, 0xff,
  0x04, 0x00, 0x00, 0x00, 0x00, 0x08, 0x00, 0x00, 0x16, 0xb4, 0x42, 0xbd,
  0xcb, 0x83, 0x84, 0xbe, 0x0f, 0xf8, 0xb9, 0x3d, 0xfa, 0x94, 0x5c, 0xbe,
  0x78, 0x4d, 0x0e, 0xbe, 0xc6, 0xc3, 0x0f, 0xbf, 0x46, 0xae, 0x1c, 0xbf,
  0xd1, 0x3e, 0x06, 0xbf, 0x7c, 0x12, 0x53, 0xbd, 0xb4, 0xa7, 0xdf, 0xbe,
  0x34, 0xb3, 0xea, 0xbd, 0x49, 0x91, 0x34, 0xbd, 0xcb, 0xbb, 0xbb, 0xbe,
  0x08, 0x7b, 0xd8, 0xbd, 0x9a, 0x11, 0x2d, 0xbd, 0x29, 0xc8, 0x47, 0x3f,
  0x55, 0x4f, 0x8f, 0xbd, 0x89, 0xbe, 0xc5, 0x3d, 0xbd, 0xfe, 0xaf, 0xbd,
  0xfa, 0xd8, 0x52, 0xbd, 0x6a, 0x45, 0xa8, 0xbe, 0x6b, 0x8f, 0xb4, 0x3d,
  0xc4, 0xf8, 0xa1, 0xbd, 0x52, 0x14, 0x8d, 0xbe, 0x77, 0x49, 0xac, 0xbd,
  0xee, 0x51, 0x1a, 0x3e, 0x5e, 0x68, 0x06, 0x3e, 0xd6, 0x06, 0x8e, 0x3d,
  0x50, 0xaa, 0xab, 0xbd, 0xc6, 0x03, 0x32, 0x3e, 0xb9, 0xa6, 0x1d, 0x3e,
  0xf6, 0xe8, 0xdd, 0x3c, 0xf8, 0x63, 0x43, 0x3c, 0x41, 0xb8, 0x06, 0xbd,
  0xd9, 0x75, 0x0f, 0x3f, 0xf0, 0xa7, 0x90, 0x3d, 0xc8, 0xdd, 0x29, 0xbe,
  0x45, 0x1e, 0x46, 0x3d, 0xa7, 0x1c, 0x14, 0xbe, 0x1f, 0xb9, 0x51, 0xbd,
  0x16, 0x0f, 0xe7, 0xbc, 0x3f, 0x49, 0x89, 0xbb, 0xba, 0x82, 0x29, 0x3e,
  0x43, 0xbc, 0x04, 0xbf, 0xc8, 0x21, 0x5c, 0xbd, 0x60, 0x2c, 0x0b, 0x3e,
  0x19, 0xb0, 0x0b, 0xbd, 0x1d, 0xba, 0x03, 0xbf, 0x8e, 0x07, 0x18, 0xbd,
  0x40, 0xe1, 0x8d, 0x3e, 0x2e, 0xe8, 0x4f, 0xbd, 0xb6, 0x98, 0x61, 0xbd,
  0x1b, 0x8a, 0xa2, 0x3d, 0xa4, 0xe2, 0xb8, 0xbd, 0x54, 0x59, 0xd0, 0xbd,
  0xbb, 0x2f, 0xd9, 0x3b, 0xf3, 0x62, 0x02, 0xbe, 0x39, 0xfd, 0xd6, 0xbe,
  0xdf, 0xd2, 0xb5, 0xbe, 0xef, 0x9c, 0x26, 0xbe, 0x27, 0xe0, 0x29, 0x3d,
  0x73, 0x51, 0xf0, 0xbe, 0x02, 0xa9, 0x82, 0xbe, 0xc7, 0x64, 0x83, 0x3d,
  0x20, 0x5c, 0xc4, 0xbd, 0xcd, 0x2c, 0x2c, 0xbe, 0xa8, 0x4f, 0x46, 0x3e,
  0xe0, 0xc8, 0xf9, 0x3d, 0x26, 0x9b, 0x56, 0xbe, 0x46, 0x01, 0x86, 0xbc,
  0x02, 0xe2, 0xc6, 0xbd, 0xeb, 0x32, 0x9a, 0x3d, 0xcc, 0x0b, 0xf4, 0xbe,
  0x66, 0x58, 0x53, 0xbd, 0xc9, 0x4e, 0x85, 0x3d, 0x67, 0x37, 0x5a, 0xbe,
  0x51, 0x44, 0xf3, 0xbd, 0x80, 0xaf, 0x14, 0x3f, 0x89, 0x4c, 0xf1, 0xbd,
  0xd2, 0x8b, 0x3c, 0xbe, 0x47, 0xd0, 0x27, 0xbf, 0x92, 0xdc, 0x34, 0x3e,
  0xb1, 0x02, 0x49, 0x3d, 0x44, 0xa0, 0x6f, 0xbd, 0x1a, 0xec, 0x0d, 0x3d,
  0x4f, 0x7c, 0xb3, 0xbd, 0x7f, 0xbc, 0x1b, 0xbe, 0x80, 0x6b, 0x04, 0xbd,
  0xea, 0x38, 0x00, 0xbf, 0xa6, 0x79, 0x9b, 0xbe, 0x5b, 0xa9, 0xa9, 0xbe,
  0xe4, 0xb0, 0x03, 0x3d, 0x1a, 0x2c, 0x76, 0x3d, 0x42, 0x73, 0xce, 0xbc,
  0x19, 0x98, 0x9d, 0x3d, 0x29, 0x2a, 0x97, 0x3d, 0xe4, 0xe4, 0x2f, 0x3d,
  0x11, 0x5b, 0xe1, 0xbe, 0x5c, 0x56, 0xa6, 0xbe, 0x34, 0xcf, 0x2b, 0xbe,
  0x85, 0x1e, 0x26, 0x3e, 0xe5, 0xfb, 0x53, 0xbe, 0x90, 0xaa, 0x98, 0xbe,
  0x7b, 0x8f, 0x95, 0x3d, 0xad, 0x63, 0xba, 0xbd, 0x87, 0xf9, 0x7d, 0x3e,
  0x6f, 0x8a, 0x86, 0xbe, 0x07, 0x8c, 0x40, 0x3e, 0x18, 0x45, 0xa3, 0x3c,
  0x6b, 0x38, 0xd5, 0xbe, 0x7e, 0x0d, 0x2d, 0x3d, 0x24, 0xf7, 0x7d, 0x3d,
  0xfb, 0xc8, 0x81, 0xbc, 0xa0, 0x19, 0xae, 0xbe, 0x56, 0xbd, 0xc0, 0xbd,
  0x2e, 0x91, 0x92, 0xbe, 0x8a, 0x73, 0x3e, 0xbb, 0x91, 0xc5, 0x01, 0x3e,
  0x87, 0x40, 0x8a, 0xbe, 0xe5, 0xc5, 0x0f, 0x3b, 0x37, 0x50, 0xbd, 0xbd,
  0x60, 0xe1, 0xb0, 0xbc, 0xe4, 0x2c, 0xee, 0x3d, 0x4c, 0x66, 0xb6, 0xbd,
  0xc2, 0x56, 0x2a, 0x3d, 0x54, 0x44, 0xbc, 0xbd, 0x00, 0x9c, 0x15, 0x3b,
  0xcf, 0x23, 0x0c, 0xbe, 0xa0, 0xb1, 0xe4, 0xbc, 0x2d, 0xae, 0xc0, 0xbe,
  0x3b, 0xdf, 0xe0, 0xbd, 0x72, 0x81, 0x42, 0xbe, 0x60, 0x69, 0x3e, 0xbe,
  0xa9, 0x1b, 0xf0, 0xbe, 0xab, 0x99, 0xf4, 0xbe, 0x12, 0x6b, 0xa1, 0xbe,
  0xf7, 0x00, 0x33, 0xbd, 0x88, 0x49, 0xc0, 0xbe, 0xd5, 0x45, 0xca, 0xbe,
  0x23, 0x73, 0x9a, 0x3d, 0xb0, 0x03, 0x06, 0xbe, 0xbb, 0x30, 0xfc, 0x3d,
  0xf6, 0x13, 0x62, 0xbd, 0x58, 0x12, 0x4e, 0x3e, 0x99, 0x67, 0x22, 0xbd,
  0x64, 0x04, 0xa2, 0xbe, 0xb2, 0xaa, 0x00, 0x3e, 0x53, 0x1e, 0xf9, 0x3e,
  0xac, 0x2f, 0x83, 0xbe, 0x92, 0x07, 0x5d, 0xbd, 0x84, 0x7d, 0x1a, 0x3e,
  0x45, 0x89, 0x5d, 0x3e, 0x62, 0xb6, 0xf9, 0xbd, 0x30, 0x92, 0x89, 0x3e,
  0x17, 0x1b, 0x1d, 0x3c, 0x90, 0xec, 0x89, 0xbe, 0x19, 0xcf, 0x8c, 0xbe,
  0x79, 0x27, 0xd7, 0x3c, 0xfa, 0x25, 0xd7, 0xbd, 0x01, 0xb6, 0xdf, 0xbe,
  0xf6, 0x9a, 0x27, 0xbe, 0x26, 0x45, 0x11, 0xbe, 0x5b, 0x98, 0x81, 0xbe,
  0x51, 0x2c, 0x0b, 0xbf, 0x32, 0x37, 0x26, 0xbe, 0x16, 0x78, 0x37, 0xbe,
  0xcf, 0xcb, 0xa7, 0xbe, 0x86, 0x71, 0x12, 0xbf, 0xc2, 0xf0, 0x8c, 0xbd,
  0xf0, 0x3b, 0xc2, 0xbb, 0x65, 0xaf, 0x6d, 0x3e, 0xc0, 0x42, 0x90, 0xbc,
  0xe7, 0x79, 0x5e, 0xbd, 0x0c, 0x18, 0x09, 0x3e, 0xaa, 0x50, 0x3a, 0xbd,
  0x4d, 0xb9, 0xb0, 0x3e, 0xd2, 0x0f, 0x3c, 0xbd, 0xc3, 0x4c, 0x99, 0x3e,
  0x64, 0x83, 0x23, 0x3e, 0xbf, 0x07, 0x21, 0x3e, 0xa4, 0x03, 0x8e, 0x3c,
  0xb3, 0xcf, 0xe3, 0x3c, 0xc9, 0x46, 0x93, 0x3e, 0x03, 0x6c, 0xbf, 0x3c,
  0x57, 0x02, 0x49, 0xbd, 0x87, 0x2d, 0xa4, 0xbe, 0x3a, 0xa1, 0x86, 0xbe,
  0xcb, 0x2c, 0xac, 0xbe, 0x12, 0xa2, 0xb2, 0xbb, 0xe1, 0xe7, 0x13, 0xbf,
  0x6b, 0x85, 0x3f, 0xbf, 0xbf, 0x1c, 0xa5, 0xbe, 0x5f, 0xbf, 0xc1, 0xbe,
  0x2b, 0x69, 0xc7, 0x3e, 0x61, 0xd4, 0x53, 0x3d, 0xa2, 0xf3, 0x83, 0x3e,
  0x83, 0xb0, 0x92, 0xbe, 0xbf, 0x64, 0x1a, 0xbd, 0x68, 0x1f, 0xc9, 0xb7,
  0x23, 0x24, 0x0e, 0xbe, 0x99, 0x54, 0x45, 0xbe, 0xa5, 0x9d, 0x02, 0xbe,
  0x84, 0xde, 0x22, 0x3d, 0x25, 0xd0, 0x8a, 0x3e, 0x4c, 0x65, 0xa5, 0xbe,
  0x9a, 0x12, 0x07, 0x3e, 0x69, 0x87, 0x0d, 0x3e, 0x46, 0x15, 0x8c, 0xbe,
  0xe8, 0x35, 0xa5, 0xbd, 0x18, 0xc0, 0xb0, 0x3e, 0x22, 0x83, 0x30, 0xbd,
  0x21, 0x02, 0xf9, 0x3c, 0x8b, 0xa6, 0x26, 0xbe, 0x22, 0x1a, 0x00, 0x3e,
  0x76, 0xc1, 0x16, 0xbd, 0x60, 0xa3, 0xfd, 0xbd, 0x05, 0x63, 0x45, 0xbe,
  0x0a, 0x92, 0x74, 0x3e, 0x5b, 0xab, 0xb7, 0xbd, 0xa7, 0x13, 0x62, 0x3e,
  0x7f, 0xef, 0x29, 0xbe, 0x6e, 0x33, 0x7e, 0xbc, 0x99, 0x0b, 0xcd, 0x3d,
  0xc2, 0xab, 0xe9, 0xbd, 0xad, 0xed, 0xa3, 0xbd, 0x7f, 0xd6, 0xc4, 0x3d,
  0x72, 0xff, 0xbe, 0x3e, 0xf0, 0x8a, 0x0f, 0xbe, 0x08, 0xc9, 0x41, 0xbb,
  0xa5, 0xbd, 0x70, 0x3e, 0x47, 0x5d, 0x04, 0x3f, 0x85, 0xb4, 0x8d, 0xbd,
  0x5d, 0x28, 0xf0, 0xbd, 0x00, 0x84, 0x8b, 0x3e, 0x11, 0xc4, 0x95, 0xbd,
  0x0b, 0x01, 0x30, 0x3e, 0x4c, 0x2b, 0xe9, 0x3b, 0x6e, 0x5f, 0xe9, 0xbc,
  0x00, 0xef, 0xcb, 0xbd, 0xaf, 0x22, 0x11, 0x3d, 0x30, 0x79, 0x37, 0xbd,
  0x6c, 0x76, 0x9e, 0xbe, 0x5a, 0xe1, 0xb5, 0xbe, 0x8c, 0x03, 0x68, 0x3d,
  0xec, 0xd0, 0x34, 0x3b, 0x90, 0x9d, 0x59, 0xbb, 0xe7, 0x77, 0x46, 0xbc,
  0xb6, 0x4f, 0xcd, 0x3b, 0x20, 0xf5, 0x55, 0xbd, 0xe6, 0x5e, 0x1d, 0xbe,
  0xbd, 0xa9, 0x96, 0xbe, 0xd8, 0xd5, 0x2f, 0xbd, 0x9d, 0x8f, 0x43, 0xbd,
  0x49, 0xd8, 0x8e, 0xbd, 0x1a, 0xd3, 0xe8, 0x3d, 0x27, 0x62, 0x99, 0xbc,
  0x36, 0x03, 0x41, 0xbd, 0xbd, 0xb1, 0x0b, 0xbf, 0x70, 0x79, 0xd0, 0xbe,
  0xc7, 0xcf, 0xf2, 0xbe, 0x16, 0xcc, 0xf5, 0xbd, 0x2d, 0xa3, 0x4d, 0xbf,
  0x41, 0x1b, 0x6e, 0xbf, 0xf2, 0x3b, 0xdc, 0xbe, 0x97, 0xe5, 0xa8, 0xbd,
  0x79, 0x8d, 0xd7, 0xbd, 0x6f, 0xd8, 0x31, 0x3e, 0x9a, 0xca, 0xad, 0xbe,
  0x58, 0x21, 0x82, 0xbc, 0xc8, 0x6f, 0xb3, 0x3d, 0x3d, 0x10, 0x86, 0xbc,
  0x8b, 0x47, 0x10, 0xbe, 0x56, 0x54, 0x14, 0xbd, 0xd9, 0xe5, 0x73, 0x3e,
  0xac, 0xe5, 0x0a, 0x3e, 0xda, 0x77, 0xfa, 0x3e, 0x13, 0xbc, 0x88, 0x3d,
  0x60, 0x1f, 0x99, 0x39, 0x39, 0x8f, 0xee, 0x3e, 0xa8, 0xfd, 0x43, 0xbd,
  0x55, 0x09, 0x01, 0xbe, 0xa4, 0x90, 0x9f, 0xbe, 0xdd, 0x21, 0xb6, 0xbe,
  0x6e, 0xf4, 0x7f, 0x3d, 0xd6, 0x5c, 0x79, 0xbd, 0x5e, 0x34, 0xd3, 0x3d,
  0xee, 0xcc, 0x0d, 0x3e, 0x56, 0x45, 0x5e, 0x3c, 0x1c, 0x7d, 0x3c, 0xbd,
  0xac, 0xe7, 0x4f, 0xbe, 0xd7, 0x7b, 0x99, 0xbe, 0xf0, 0xf5, 0x9a, 0x3e,
  0xcc, 0xfc, 0x9f, 0x3e, 0x79, 0x8e, 0x9a, 0x3e, 0x50, 0xa1, 0x88, 0x3d,
  0x03, 0xd7, 0x8f, 0x3e, 0xb6, 0x5f, 0x9b, 0xbe, 0x8b, 0x0a, 0xd8, 0xbe,
  0x75, 0x1f, 0x4f, 0xbf, 0x78, 0x64, 0xa0, 0x3c, 0x1a, 0x49, 0x11, 0xbe,
  0x77, 0xdb, 0x56, 0x3d, 0x44, 0x33, 0xed, 0x3d, 0x08, 0xe3, 0x3a, 0xbd,
  0x3c, 0x69, 0x7f, 0xbe, 0xda, 0xa6, 0x51, 0xbe, 0x41, 0xfd, 0xd1, 0xbe,
  0xc6, 0x70, 0x6a, 0xbd, 0x00, 0xbc, 0x1e, 0xbe, 0xbb, 0xaf, 0x8e, 0x3d,
  0x30, 0xfe, 0x91, 0x3e, 0x07, 0xea, 0x37, 0xbd, 0x6f, 0xf5, 0x22, 0x3e,
  0xe0, 0x95, 0xe7, 0x3d, 0x56, 0x19, 0x0f, 0xbb, 0xb7, 0xd7, 0xb7, 0xbd,
  0x18, 0xd1, 0x2c, 0xbe, 0x3f, 0x70, 0x2a, 0x3e, 0xdd, 0xd3, 0x4f, 0x3e,
  0x26, 0xf4, 0x6d, 0xbe, 0xbc, 0xe6, 0x8f, 0x3d, 0x4f, 0xa9, 0xaa, 0x3e,
  0xfd, 0x2c, 0x18, 0xbe, 0xcb, 0xc7, 0xe5, 0x3e, 0xd8, 0x3c, 0xd4, 0xbd,
  0x42, 0x6e, 0x33, 0xbe, 0x06, 0x30, 0x1e, 0xbd, 0x2b, 0xc0, 0x2c, 0xbe,
  0x3f, 0x3e, 0x91, 0xbe, 0xe8, 0x06, 0xa4, 0xbd, 0x61, 0x08, 0x40, 0xbe,
  0xa1, 0x2d, 0x96, 0xbe, 0x33, 0xf7, 0xf0, 0xbd, 0x93, 0xb7, 0x3c, 0xbd,
  0x61, 0x34, 0xfe, 0x3d, 0x49, 0xa7, 0xb0, 0xbc, 0xe1, 0xe0, 0x35, 0xbe,
  0x53, 0xa6, 0xb5, 0xbc, 0xac, 0x0e, 0xd0, 0x3d, 0xfe, 0x9c, 0x0d, 0xbe,
  0x44, 0x98, 0x2d, 0x3c, 0x73, 0x27, 0x39, 0xbd, 0xee, 0x98, 0x13, 0x3e,
  0xd9, 0x1e, 0x03, 0xbe, 0x81, 0xa5, 0x40, 0xbe, 0xa0, 0x0c, 0x15, 0x3d,
  0x55, 0x16, 0xc9, 0x3d, 0x7d, 0xe6, 0xa3, 0xbe, 0xc5, 0xf4, 0x02, 0x3e,
  0x2c, 0x1b, 0x71, 0xbd, 0xf6, 0x3a, 0xda, 0x3c, 0x27, 0x23, 0xc7, 0xbd,
  0xe5, 0xda, 0x62, 0x3d, 0x38, 0xf1, 0x92, 0x3d, 0xbe, 0x92, 0xa0, 0xbc,
  0x55, 0x18, 0x0f, 0x3e, 0xfb, 0x8b, 0x8c, 0xbc, 0x4a, 0x3e, 0x98, 0xbe,
  0x2a, 0x6f, 0xfd, 0xbc, 0xc2, 0x22, 0xb4, 0xbe, 0x6b, 0xd7, 0x06, 0x3e,
  0xaf, 0xbf, 0x6a, 0xbe, 0xcd, 0xcc, 0x3e, 0x3e, 0x71, 0xd7, 0x32, 0xbe,
  0xd4, 0x43, 0xd5, 0xbd, 0x30, 0xa6, 0xf7, 0xbd, 0x8f, 0x9e, 0xa1, 0x3d,
  0xd7, 0x96, 0x9c, 0xbe, 0x71, 0x67, 0x8c, 0xbd, 0x1b, 0x1b, 0x1d, 0xbe,
  0xc2, 0x4f, 0xb4, 0xbe, 0x3b, 0x23, 0x24, 0xbe, 0xa9, 0xfe, 0x09, 0x3e,
  0x90, 0xa7, 0xd2, 0xbd, 0xce, 0x12, 0x3f, 0xbd, 0x1c, 0x5f, 0xb0, 0xbe,
  0xa9, 0x4c, 0x91, 0xbe, 0xe8, 0x42, 0xab, 0xbd, 0xfb, 0x8b, 0xc5, 0x3d,
  0x67, 0x14, 0x25, 0xbe, 0xc3, 0x73, 0x48, 0x3d, 0x31, 0x60, 0x8e, 0xbd,
  0xdc, 0x43, 0x3a, 0xbe, 0x73, 0x62, 0xb9, 0xbe, 0x23, 0x4e, 0xe8, 0xbd,
  0xa3, 0x34, 0xe0, 0xbe, 0x90, 0x08, 0xff, 0xbe, 0x3d, 0x31, 0xac, 0xbd,
  0xe4, 0x11, 0xc3, 0xbe, 0x1c, 0xf3, 0xac, 0x3e, 0x50, 0xda, 0xbd, 0x3d,
  0xe6, 0x39, 0x9a, 0xbd, 0x37, 0x19, 0xba, 0xbd, 0xfb, 0xed, 0xa4, 0xbe,
  0xf8, 0x8d, 0x5b, 0x3e, 0x62, 0xe7, 0x0c, 0x3e, 0xb6, 0x06, 0x47, 0xbf,
  0xf4, 0x67, 0x51, 0x3d, 0x64, 0xca, 0x8c, 0x3d, 0xc0, 0xc3, 0xee, 0x3e,
  0xe1, 0x7f, 0xa1, 0xbe, 0x69, 0xf7, 0x9f, 0x3e, 0x18, 0x84, 0x17, 0x3e,
  0x5d, 0xbf, 0xc3, 0xbe, 0xfd, 0xf2, 0x22, 0xbe, 0x3e, 0xe9, 0x73, 0x3c,
  0x16, 0xbb, 0xc5, 0xbc, 0x91, 0x34, 0x5a, 0xbf, 0xe4, 0x79, 0x02, 0xbf,
  0xde, 0x3e, 0x0b, 0x3e, 0xf6, 0x5b, 0x67, 0x3d, 0x4d, 0x2c, 0xc1, 0xbe,
  0x05, 0xa7, 0x47, 0x3d, 0x1e, 0xdb, 0x4a, 0x3e, 0x3e, 0x5c, 0xa9, 0xbd,
  0x24, 0x9e, 0xba, 0xbd, 0xd7, 0x66, 0x01, 0xbe, 0x57, 0x42, 0x1b, 0xbe,
  0x24, 0x3a, 0xb4, 0xbd, 0xce, 0x38, 0x97, 0xbe, 0xae, 0x4e, 0xf1, 0xbd,
  0x70, 0xfb, 0x86, 0xbe, 0x25, 0x05, 0xae, 0xbe, 0xfa, 0x35, 0xcb, 0xbc,
  0x83, 0xfb, 0x08, 0x3e, 0x37, 0x74, 0x30, 0xbe, 0x22, 0x8f, 0x62, 0x3c,
  0x50, 0x22, 0xaa, 0x3d, 0x14, 0x66, 0x0e, 0xbe, 0x6a, 0xd3, 0x27, 0xbe,
  0x4f, 0x36, 0x4c, 0x3e, 0xa8, 0x1a, 0xe2, 0xbe, 0x60, 0xf3, 0xe2, 0xbb,
  0xf3, 0xfd, 0x72, 0xbe, 0x05, 0x31, 0xc1, 0xbd, 0x89, 0xa3, 0x05, 0xbe,
  0x81, 0x53, 0x0b, 0xbe, 0xfd, 0x75, 0xb9, 0xbd, 0x72, 0xa7, 0x84, 0xbe,
  0xd6, 0x8b, 0x18, 0xbe, 0x1e, 0xa9, 0xbc, 0x3d, 0x9e, 0xb5, 0x3d, 0xbe,
  0xec, 0xc2, 0x1f, 0xbe, 0xcf, 0xc6, 0x90, 0x3e, 0xfc, 0x16, 0x40, 0xbe,
  0xb7, 0x90, 0xe6, 0x3e, 0xf0, 0x6a, 0xb8, 0x3d, 0x2d, 0xd3, 0xcd, 0x3d,
  0x94, 0x4f, 0xf3, 0x3d, 0x8a, 0xe7, 0x8b, 0xbc, 0xd9, 0xf5, 0xe9, 0xbc,
  0xc3, 0xf9, 0x78, 0xbd, 0x89, 0x75, 0x79, 0x3e, 0xb7, 0xe2, 0x2d, 0xbd,
  0x13, 0x75, 0x05, 0xbe, 0x0f, 0x3d, 0x9b, 0x3d, 0x54, 0xa9, 0x02, 0xbe,
  0x0b, 0x52, 0x71, 0x3c, 0x16, 0x04, 0xa0, 0x3d, 0xe0, 0x4f, 0x69, 0x3d,
  0x76, 0x36, 0xc1, 0xbd, 0xb1, 0x2c, 0xad, 0xbc, 0x94, 0x68, 0xc7, 0xbc,
  0x10, 0xbd, 0x0a, 0x3b, 0xf2, 0x82, 0xf0, 0x3c, 0xbd, 0xbd, 0xe8, 0xbc,
  0x97, 0xc3, 0xab, 0xbb, 0xbf, 0x8e, 0x74, 0x3d, 0xee, 0xd8, 0xdc, 0x3d,
  0x67, 0x43, 0x3b, 0xbd, 0xb6, 0x9a, 0x72, 0xbd, 0xdb, 0xd2, 0x94, 0xbc,
  0xef, 0x29, 0xd8, 0x3d, 0x0e, 0xda, 0xb1, 0xbc, 0xf2, 0x18, 0x37, 0xbd,
  0x82, 0xcd, 0x42, 0x3d, 0x59, 0x94, 0x8b, 0xbd, 0xa1, 0xb8, 0x30, 0x3c,
  0x4d, 0xfa, 0xd1, 0xbd, 0x70, 0x36, 0x39, 0xbd, 0xd4, 0x74, 0xc6, 0xbd,
  0x74, 0x03, 0x2f, 0xbe, 0x40, 0x6a, 0xf7, 0xbd, 0x0a, 0xe1, 0xd1, 0xbc,
  0x40, 0xf8, 0x1f, 0xbd, 0xa8, 0x6c, 0x5e, 0x3f, 0x5d, 0x34, 0x04, 0x3e,
  0x7f, 0xdd, 0xa3, 0x3e, 0xb0, 0x60, 0xd7, 0xbd, 0x23, 0x5e, 0x48, 0x3e,
  0x18, 0x1d, 0x26, 0xbc, 0x84, 0xef, 0xba, 0xbc, 0x6b, 0xf6, 0x14, 0xbe,
  0x54, 0x76, 0x95, 0xbb, 0x94, 0x90, 0x97, 0x3d, 0x8d, 0xf0, 0x91, 0xbd,
  0xd2, 0xbb, 0x9c, 0xbd, 0x7d, 0xf9, 0xb3, 0xbc, 0x0c, 0x3b, 0xfb, 0xbd,
  0xcb, 0xb1, 0x33, 0xbd, 0x74, 0x93, 0x1c, 0xbe, 0xce, 0x59, 0x96, 0xbc,
  0x85, 0x30, 0xdc, 0x3d, 0x79, 0xaa, 0x3f, 0xbe, 0xd3, 0x81, 0x47, 0xbd,
  0x04, 0x2a, 0xf9, 0x3d, 0xd9, 0xf0, 0xf8, 0x3a, 0xb8, 0x7a, 0xb4, 0x3d,
  0x75, 0xfc, 0xfa, 0xbd, 0xdb, 0xc7, 0x1c, 0x3d, 0xe6, 0xf6, 0x94, 0x3e,
  0x17, 0x01, 0xd2, 0xbd, 0x26, 0xde, 0xff, 0xff, 0x10, 0x00, 0x00, 0x00,
  0x0a, 0x00, 0x00, 0x00, 0x1c, 0x00, 0x00, 0x00, 0x38, 0x00, 0x00, 0x00,
  0x04, 0x00, 0x00, 0x00, 0x10, 0x00, 0x00, 0x00, 0x04, 0x00, 0x00, 0x00,
  0x01, 0x00, 0x00, 0x00, 0x08, 0x00, 0x00, 0x00, 0x1a, 0x00, 0x00, 0x00,
  0x73, 0x65, 0x71, 0x75, 0x65, 0x6e, 0x74, 0x69, 0x61, 0x6c, 0x2f, 0x63,
  0x6f, 0x6e, 0x76, 0x32, 0x64, 0x5f, 0x31, 0x2f, 0x43, 0x6f, 0x6e, 0x76,
  0x32, 0x44, 0x00, 0x00, 0x9c, 0xdd, 0xff, 0xff, 0xa6, 0xde, 0xff, 0xff,
  0x04, 0x00, 0x00, 0x00, 0x80, 0x01, 0x00, 0x00, 0xe7, 0x97, 0x00, 0x3d,
  0xd1, 0xc8, 0x32, 0x3e, 0x23, 0xd5, 0x00, 0xbe, 0x33, 0x4e, 0x95, 0xbd,
  0x81, 0xfc, 0xa6, 0x3d, 0x28, 0x84, 0xcf, 0xbd, 0x24, 0x89, 0xf4, 0x3c,
  0x8a, 0xd8, 0xe3, 0x3c, 0x30, 0xd7, 0xc5, 0xbd, 0x1a, 0x8b, 0x88, 0x3e,
  0x8d, 0x5b, 0x04, 0x3d, 0xb9, 0x5c, 0xa2, 0x3c, 0x35, 0x41, 0xd0, 0x3e,
  0x5c, 0xac, 0xa4, 0xbd, 0xe5, 0x4c, 0x2c, 0x3e, 0x3d, 0x04, 0xad, 0xbd,
  0xdf, 0x7a, 0xcb, 0x3e, 0xf8, 0xd1, 0x23, 0xbe, 0xb1, 0xa5, 0xc3, 0xbe,
  0x86, 0xb5, 0x9f, 0xbe, 0xf0, 0x92, 0x0e, 0x3d, 0x53, 0x62, 0xb9, 0xbc,
  0x3c, 0x55, 0x23, 0xbd, 0xed, 0x74, 0x26, 0xbd, 0x2c, 0xf4, 0xdb, 0x3d,
  0x45, 0x19, 0x07, 0xbc, 0x3f, 0x72, 0x4b, 0xbc, 0xb9, 0x0a, 0xb6, 0x3e,
  0xe0, 0x09, 0x57, 0x3e, 0x0a, 0xeb, 0x4e, 0x3d, 0xb1, 0x3a, 0x3f, 0x3d,
  0xe9, 0xd6, 0x52, 0x3d, 0x5e, 0xa9, 0xe4, 0x3c, 0x0d, 0x6e, 0xdf, 0xbe,
  0x1e, 0x05, 0x7a, 0xbe, 0x7e, 0x1d, 0x94, 0x3c, 0xde, 0x1d, 0xb7, 0x3d,
  0x8c, 0xc5, 0x19, 0xbe, 0xc5, 0x65, 0x0f, 0xbf, 0x2f, 0x06, 0xa8, 0xbd,
  0x4d, 0x3a, 0x5e, 0xbc, 0x88, 0xa5, 0xa6, 0x3e, 0xec, 0x0c, 0x6c, 0xbd,
  0x56, 0x93, 0x1a, 0x3e, 0xe9, 0x23, 0x50, 0x3e, 0xd0, 0xc6, 0xa2, 0x3d,
  0xdd, 0xbe, 0x09, 0x3d, 0x81, 0xbd, 0xae, 0x3d, 0xd1, 0x49, 0x0f, 0x3d,
  0x1c, 0x84, 0x1a, 0xbe, 0x79, 0xe7, 0x42, 0x3d, 0x44, 0x57, 0xb2, 0xbc,
  0xc8, 0xcc, 0xfa, 0xbd, 0xd0, 0x19, 0x5b, 0x3d, 0x57, 0x7a, 0xd2, 0xbd,
  0x79, 0x49, 0xda, 0xbb, 0x24, 0xbe, 0xa3, 0x3d, 0xb1, 0xc5, 0xab, 0xbd,
  0x0a, 0x7b, 0x88, 0x3c, 0xc7, 0xbc, 0x3c, 0x3d, 0x28, 0x4f, 0x99, 0xbd,
  0x8b, 0xc8, 0x04, 0x3d, 0xe4, 0x7a, 0xac, 0x3d, 0x37, 0x37, 0x96, 0xbe,
  0xdb, 0xe7, 0x33, 0x3e, 0x9a, 0x20, 0xcd, 0x3e, 0x08, 0xe3, 0x0b, 0xbd,
  0x5d, 0xef, 0x30, 0xbe, 0x2e, 0x89, 0x34, 0xbe, 0x37, 0x43, 0xd6, 0x3e,
  0xa8, 0xde, 0x3c, 0xbc, 0x43, 0x52, 0x9d, 0xbe, 0x86, 0x27, 0x77, 0x3e,
  0x1c, 0x1d, 0xcf, 0xbe, 0x5a, 0x4f, 0x09, 0xbd, 0xd2, 0xa0, 0x04, 0x3e,
  0x78, 0x87, 0x20, 0xbe, 0x78, 0x19, 0x97, 0xbd, 0x9c, 0x4b, 0x4a, 0xbe,
  0xd7, 0xd8, 0xdf, 0x3e, 0x17, 0xfd, 0xd3, 0x3d, 0xc5, 0x16, 0x23, 0xbe,
  0x39, 0x06, 0x06, 0x3e, 0xfd, 0x7c, 0x3f, 0x3d, 0xff, 0x3c, 0xc6, 0xbd,
  0x9c, 0xb3, 0x89, 0xbc, 0xdb, 0x32, 0xec, 0xbc, 0x2a, 0x65, 0xc0, 0xbe,
  0x89, 0x43, 0x90, 0xbe, 0x9c, 0x39, 0x12, 0xbe, 0xd8, 0xa8, 0x38, 0x3e,
  0x5a, 0xf6, 0x94, 0x3d, 0x36, 0x59, 0x8d, 0x3c, 0x47, 0x9a, 0x73, 0x3e,
  0xd1, 0x05, 0x47, 0x3e, 0x1d, 0x8c, 0xfd, 0x3d, 0xfe, 0xdf, 0xff, 0xff,
  0x10, 0x00, 0x00, 0x00, 0x09, 0x00, 0x00, 0x00, 0x1c, 0x00, 0x00, 0x00,
  0x38, 0x00, 0x00, 0x00, 0x04, 0x00, 0x00, 0x00, 0x08, 0x00, 0x00, 0x00,
  0x04, 0x00, 0x00, 0x00, 0x03, 0x00, 0x00, 0x00, 0x01, 0x00, 0x00, 0x00,
  0x18, 0x00, 0x00, 0x00, 0x73, 0x65, 0x71, 0x75, 0x65, 0x6e, 0x74, 0x69,
  0x61, 0x6c, 0x2f, 0x63, 0x6f, 0x6e, 0x76, 0x32, 0x64, 0x2f, 0x43, 0x6f,
  0x6e, 0x76, 0x32, 0x44, 0x00, 0x00, 0x00, 0x00, 0x74, 0xdf, 0xff, 0xff,
  0x7e, 0xe0, 0xff, 0xff, 0x04, 0x00, 0x00, 0x00, 0xc0, 0x00, 0x00, 0x00,
  0x57, 0xe0, 0x8e, 0xbe, 0xda, 0xc6, 0x55, 0x3e, 0x80, 0x28, 0xb4, 0x3e,
  0xe1, 0x2d, 0x06, 0xbd, 0x36, 0x2b, 0x0d, 0x3e, 0xf6, 0xf9, 0x1f, 0x3a,
  0x2e, 0x50, 0x8a, 0xbe, 0xc1, 0xd3, 0xcc, 0x3c, 0x9e, 0x58, 0xad, 0xbe,
  0xa0, 0x01, 0xa3, 0x3c, 0xcd, 0x21, 0x9e, 0x3d, 0x6b, 0xf3, 0xb5, 0xbe,
  0xbc, 0x1d, 0xa5, 0xbe, 0xe3, 0xf8, 0xa0, 0xbe, 0x13, 0xf3, 0x40, 0x3e,
  0xc9, 0xa4, 0x79, 0xbc, 0x6d, 0x7b, 0x9e, 0xbe, 0x57, 0xc8, 0x8a, 0x3e,
  0xcd, 0x2c, 0xc7, 0x3e, 0x8b, 0x42, 0x81, 0xbd, 0x43, 0xbd, 0x32, 0x3e,
  0x5a, 0x16, 0xa1, 0x3c, 0x41, 0xf6, 0x23, 0xbe, 0x84, 0xb2, 0xd0, 0xbd,
  0x63, 0x54, 0x7f, 0xbe, 0x2f, 0x78, 0xa1, 0x3d, 0x19, 0x5e, 0x0d, 0x3e,
  0xcf, 0x2e, 0x71, 0xbe, 0xb3, 0x92, 0x84, 0xbe, 0x12, 0xd5, 0x92, 0xbe,
  0x2a, 0x5d, 0x93, 0x3e, 0xd5, 0x73, 0xe4, 0x3c, 0x83, 0x80, 0xa9, 0xbe,
  0xcc, 0xd2, 0x99, 0x3e, 0xee, 0x77, 0xad, 0x3e, 0x00, 0x66, 0xe5, 0xbd,
  0xee, 0x25, 0xe7, 0x3d, 0x5e, 0xc7, 0xb4, 0x3d, 0x0f, 0xb3, 0xc8, 0xbd,
  0xe6, 0xdf, 0x4a, 0x3e, 0xe4, 0x41, 0x43, 0xbe, 0x02, 0x7e, 0xa2, 0x3c,
  0xb0, 0x5a, 0xbe, 0x3d, 0xd6, 0xd6, 0x51, 0xbe, 0x37, 0x8b, 0x73, 0xbe,
  0xac, 0xc0, 0xcd, 0xbe, 0xa8, 0x69, 0x09, 0x3e, 0xd0, 0x34, 0xb7, 0x3d,
  0x16, 0xe1, 0xff, 0xff, 0x10, 0x00, 0x00, 0x00, 0x08, 0x00, 0x00, 0x00,
  0x14, 0x00, 0x00, 0x00, 0x30, 0x00, 0x00, 0x00, 0x02, 0x00, 0x00, 0x00,
  0x03, 0x00, 0x00, 0x00, 0x10, 0x00, 0x00, 0x00, 0x19, 0x00, 0x00, 0x00,
  0x73, 0x65, 0x71, 0x75, 0x65, 0x6e, 0x74, 0x69, 0x61, 0x6c, 0x2f, 0x64,
  0x65, 0x6e, 0x73, 0x65, 0x5f, 0x31, 0x2f, 0x4d, 0x61, 0x74, 0x4d, 0x75,
  0x6c, 0x00, 0x00, 0x00, 0x84, 0xe0, 0xff, 0xff, 0x8e, 0xe1, 0xff, 0xff,
  0x04, 0x00, 0x00, 0x00, 0x00, 0x1c, 0x00, 0x00, 0xb8, 0xc7, 0xa0, 0xbe,
  0x94, 0xe8, 0xdc, 0xbd, 0xb4, 0xe9, 0x87, 0xbe, 0x00, 0xd7, 0x09, 0xbe,
  0xdf, 0x3f, 0x3f, 0x3d, 0x9b, 0x2a, 0x52, 0xbd, 0x71, 0x78, 0xf4, 0xbe,
  0xb4, 0x9e, 0xda, 0xbb, 0x3b, 0xfd, 0x2b, 0x3e, 0x0f, 0xbd, 0xda, 0x3e,
  0x38, 0x22, 0x1b, 0xbe, 0x35, 0xa5, 0x85, 0x3d, 0x71, 0x99, 0xd9, 0xbe,
  0xeb, 0x22, 0x5d, 0xbe, 0xb0, 0x42, 0x86, 0x3d, 0x9c, 0xa9, 0x0f, 0xbe,
  0xb7, 0xe6, 0xca, 0x3d, 0xc9, 0xd4, 0xfd, 0xbd, 0x85, 0x21, 0xf9, 0xbe,
  0x18, 0xb7, 0x9c, 0xbd, 0x30, 0x01, 0xf1, 0xbd, 0x0b, 0xcc, 0x53, 0xbe,
  0x95, 0x6c, 0x18, 0xbf, 0x4a, 0x8e, 0xa3, 0x3b, 0xcc, 0x2e, 0x22, 0x3e,
  0xe6, 0xeb, 0xe9, 0x3d, 0xd2, 0x4e, 0xb6, 0xbe, 0x21, 0x24, 0xba, 0xbd,
  0x9e, 0x08, 0xaf, 0x3d, 0x12, 0x5f, 0x53, 0xbe, 0x60, 0x3f, 0x83, 0xbd,
  0x51, 0xec, 0x19, 0xbc, 0xe6, 0xce, 0x57, 0xbe, 0x5a, 0x0d, 0x10, 0x3f,
  0x5a, 0xb9, 0xdd, 0x3b, 0xce, 0x99, 0xa8, 0xbe, 0xd4, 0x3d, 0x7e, 0x3d,
  0xf1, 0xd9, 0x5b, 0x3e, 0x45, 0x46, 0x9d, 0xbe, 0xe2, 0xd4, 0x78, 0x3d,
  0xa0, 0xe4, 0xbf, 0x3d, 0xfa, 0xf3, 0x8f, 0x3e, 0x44, 0xed, 0x18, 0xbe,
  0x4b, 0x18, 0x22, 0xbd, 0x31, 0xfd, 0xa4, 0x3e, 0x34, 0x52, 0x8d, 0x3e,
  0x05, 0x95, 0x0b, 0xbe, 0x77, 0x5d, 0x0e, 0x3e, 0x62, 0x26, 0x72, 0xbd,
  0x5a, 0x47, 0xf1, 0x3e, 0x9f, 0x1f, 0xca, 0x3d, 0x2f, 0x16, 0xd7, 0xbd,
  0xb7, 0x56, 0xce, 0x3c, 0xe4, 0xc9, 0xd5, 0x3e, 0xdd, 0xd3, 0x3f, 0xbf,
  0xee, 0x80, 0x66, 0x3e, 0xb0, 0x54, 0x31, 0x3e, 0x93, 0x45, 0x99, 0x3e,
  0xfc, 0xc2, 0x25, 0x3e, 0x06, 0x23, 0xa5, 0xbd, 0x4e, 0x2c, 0xa2, 0x3d,
  0x03, 0x93, 0x8f, 0xbe, 0xaa, 0x51, 0x57, 0xbd, 0x44, 0xcd, 0x37, 0xbe,
  0xac, 0xf1, 0xbc, 0xbe, 0x72, 0x02, 0xea, 0x3e, 0x13, 0x1c, 0xf7, 0x3c,
  0x5c, 0x7b, 0xee, 0x3b, 0xf8, 0x40, 0x34, 0xbe, 0x92, 0x4b, 0x2e, 0x3e,
  0xa9, 0xc9, 0x24, 0xbf, 0xf6, 0x77, 0x64, 0x3e, 0xce, 0xef, 0x9f, 0x3e,
  0xbd, 0x22, 0xae, 0x3e, 0xb1, 0x54, 0x70, 0xbc, 0xd3, 0x9b, 0xbc, 0xbd,
  0x4f, 0x9b, 0x8b, 0xbe, 0xd3, 0x0e, 0x19, 0xbe, 0x27, 0x30, 0x4b, 0x3d,
  0xe6, 0x30, 0xa6, 0xbd, 0xe0, 0x0a, 0xb4, 0xbe, 0x7f, 0xd2, 0x0c, 0x3e,
  0x1a, 0x19, 0xf3, 0xbc, 0x8e, 0x85, 0x94, 0x3c, 0x47, 0x9c, 0x93, 0xbe,
  0x17, 0x37, 0x3c, 0x3e, 0x16, 0xb3, 0x11, 0xbf, 0x06, 0xd7, 0xf8, 0xbd,
  0x8e, 0x21, 0x48, 0xbe, 0x17, 0x93, 0xfe, 0x3e, 0x82, 0x8f, 0xf7, 0x3c,
  0xc6, 0xe6, 0xe5, 0x3d, 0x84, 0xec, 0x12, 0xbe, 0x62, 0x2d, 0xbc, 0xbd,
  0x78, 0xca, 0x23, 0x3d, 0xe6, 0xa0, 0x9a, 0x3e, 0x03, 0xee, 0x3c, 0x3c,
  0x25, 0x95, 0xdb, 0x3d, 0x8e, 0x2c, 0x0b, 0xbd, 0x14, 0x32, 0xd1, 0x3d,
  0x54, 0x84, 0x94, 0xbc, 0xde, 0xe9, 0xac, 0x3c, 0xa0, 0x6a, 0xff, 0xbd,
  0x6d, 0x7e, 0xb2, 0x3b, 0xd0, 0x02, 0x78, 0xbe, 0x8e, 0x57, 0xac, 0xbe,
  0x69, 0xf8, 0x92, 0xbe, 0x80, 0xa8, 0xb1, 0xbe, 0x33, 0x93, 0x4d, 0xbe,
  0xe2, 0x4b, 0xb8, 0xbc, 0x62, 0xae, 0xb4, 0x3d, 0xa7, 0x73, 0xa6, 0xbe,
  0x3f, 0x34, 0xde, 0xbc, 0x4b, 0xa3, 0x97, 0xbe, 0xb2, 0x4c, 0x1b, 0xbd,
  0x5e, 0xd8, 0x60, 0x3d, 0xf8, 0x2c, 0x53, 0xbc, 0x49, 0x16, 0x86, 0xbe,
  0x47, 0xaf, 0x7a, 0x3d, 0xfe, 0x53, 0xfc, 0xbc, 0xd7, 0x42, 0x7f, 0xbe,
  0xc0, 0x52, 0x72, 0xbe, 0x53, 0xaf, 0x43, 0x3e, 0x20, 0x9e, 0xc8, 0xbc,
  0x74, 0xa1, 0xa3, 0x3d, 0x49, 0x10, 0x85, 0xbb, 0x46, 0x64, 0xa0, 0x3e,
  0x42, 0x71, 0x25, 0xbe, 0x7f, 0xf8, 0x3c, 0x3d, 0x82, 0x05, 0x7d, 0xbc,
  0x9f, 0x6d, 0xb0, 0x3e, 0x58, 0xb4, 0x01, 0x3d, 0x3c, 0x24, 0x83, 0xbe,
  0xe1, 0x45, 0x07, 0xbe, 0x52, 0x9f, 0x84, 0xbc, 0x81, 0x6a, 0x99, 0xbe,
  0xb2, 0x7f, 0x19, 0x3c, 0x2c, 0xba, 0x24, 0xbe, 0x1a, 0x22, 0xb0, 0xbd,
  0xc0, 0xa7, 0xa5, 0x3e, 0xa2, 0x99, 0xaa, 0x3d, 0xdf, 0x3d, 0x2d, 0x3e,
  0x23, 0x11, 0x10, 0x3e, 0x62, 0x61, 0xe7, 0xbe, 0xff, 0xd6, 0x01, 0x3e,
  0x62, 0x4e, 0x5c, 0x3e, 0xfb, 0x34, 0x8c, 0x3e, 0x27, 0x46, 0xf0, 0xbd,
  0x91, 0x80, 0x6e, 0xbd, 0x92, 0xbc, 0x96, 0xbd, 0x9b, 0x72, 0x28, 0x3e,
  0x16, 0xa4, 0x51, 0xbe, 0x76, 0x35, 0x20, 0xbd, 0xce, 0x75, 0x7d, 0xbe,
  0xfc, 0x9d, 0xea, 0xbd, 0xa2, 0x94, 0x41, 0xbe, 0xb4, 0x07, 0xe8, 0x3d,
  0x00, 0x73, 0xc9, 0xbd, 0x1c, 0x39, 0x0f, 0xbe, 0x9c, 0x41, 0x94, 0xbe,
  0x93, 0x8c, 0x12, 0xbe, 0x90, 0x38, 0x02, 0x3e, 0x31, 0x90, 0xf3, 0xbd,
  0x47, 0x24, 0xff, 0x3c, 0x29, 0x1f, 0xcd, 0x3c, 0xd1, 0x2b, 0x14, 0x3e,
  0x7c, 0xd2, 0xed, 0x3c, 0x04, 0x2c, 0x36, 0xbe, 0x28, 0xe6, 0x13, 0xbe,
  0xd9, 0xdd, 0x8a, 0x3e, 0x52, 0xf5, 0x1a, 0xbd, 0x23, 0xb3, 0xb9, 0xbc,
  0x85, 0x95, 0x13, 0xbd, 0xf5, 0xb5, 0x2f, 0x3e, 0x89, 0xd6, 0x2e, 0x3e,
  0xcc, 0x8b, 0x8d, 0xbe, 0x0c, 0x3a, 0x80, 0x3b, 0xc7, 0x8a, 0x66, 0xbc,
  0x80, 0x8a, 0x8f, 0x3e, 0x77, 0x65, 0xa2, 0xbd, 0x85, 0x14, 0x96, 0xbe,
  0x03, 0x50, 0xef, 0x3d, 0xea, 0x94, 0x8b, 0x3b, 0x72, 0x47, 0x9b, 0xbe,
  0xc0, 0x39, 0x40, 0xbe, 0x64, 0xf8, 0x57, 0xbe, 0x08, 0x79, 0x32, 0x3e,
  0x66, 0xe5, 0x0d, 0xbe, 0x37, 0xee, 0x89, 0x3d, 0x08, 0xcf, 0xbd, 0x3e,
  0xf5, 0x2a, 0xdb, 0xbd, 0xf2, 0xce, 0x74, 0xbe, 0x5a, 0x63, 0x91, 0x3d,
  0x91, 0x22, 0xda, 0xbb, 0xb0, 0xe5, 0x7c, 0x3e, 0xde, 0x9c, 0xd3, 0xbd,
  0x19, 0x47, 0x8f, 0xbe, 0x0e, 0x91, 0x18, 0xbc, 0x79, 0x3d, 0x46, 0x3c,
  0x7a, 0x5b, 0x5e, 0xbe, 0x2f, 0xb4, 0xa0, 0xbe, 0x54, 0x7b, 0x14, 0xbb,
  0x46, 0xc2, 0x1c, 0x3e, 0xb2, 0x20, 0xfb, 0xbd, 0xbd, 0x6b, 0xdf, 0xbd,
  0x28, 0xff, 0x26, 0x3d, 0x92, 0x44, 0xd3, 0xbd, 0xc0, 0xa3, 0xad, 0xbe,
  0xd2, 0x39, 0x23, 0x3d, 0x5b, 0x6a, 0x35, 0x3d, 0x2a, 0xb8, 0xf7, 0x3d,
  0xab, 0x5e, 0x83, 0xbd, 0x4d, 0x84, 0xb7, 0xbd, 0x40, 0xa8, 0xc3, 0xbd,
  0x08, 0x7e, 0x06, 0x3e, 0x91, 0xba, 0x3b, 0xbe, 0x18, 0x5a, 0x37, 0xbe,
  0xa0, 0xfb, 0xc5, 0xbd, 0x17, 0x65, 0x3a, 0xbe, 0x30, 0xe1, 0x9d, 0xbd,
  0x38, 0x66, 0x92, 0xbd, 0x58, 0x67, 0xd9, 0x3d, 0x0e, 0x9d, 0x8c, 0x3d,
  0xbe, 0x92, 0x5c, 0xbe, 0xad, 0x2b, 0x29, 0x3e, 0x77, 0x72, 0x2c, 0x3e,
  0xc7, 0xdb, 0x9e, 0x3e, 0xae, 0x7d, 0x85, 0xbe, 0x86, 0x48, 0xcc, 0x3d,
  0x09, 0xba, 0x20, 0x3d, 0x72, 0x88, 0x77, 0x3e, 0x74, 0xd7, 0x0e, 0x3d,
  0x32, 0xc5, 0x54, 0xbd, 0x28, 0xf9, 0x67, 0xbe, 0x80, 0xe2, 0x9a, 0xbc,
  0x09, 0x3d, 0x1d, 0x3d, 0x99, 0xa1, 0xa7, 0x3e, 0xed, 0x45, 0x16, 0xbc,
  0xd8, 0x40, 0x30, 0xbe, 0x81, 0x1d, 0xe8, 0x3c, 0x5b, 0xb3, 0x0c, 0xbe,
  0x57, 0x36, 0x20, 0x3e, 0xb9, 0xf2, 0xc2, 0x3e, 0xe4, 0x44, 0x72, 0x3c,
  0x43, 0xc9, 0x5b, 0xbe, 0x90, 0x60, 0x3b, 0xbd, 0xa9, 0x5c, 0xb8, 0x3d,
  0xd3, 0x30, 0xf9, 0x3d, 0x5e, 0xd3, 0xb1, 0x3d, 0xbf, 0x87, 0x5e, 0xbd,
  0x61, 0x63, 0x98, 0x3e, 0xb3, 0xab, 0x5e, 0xbd, 0x05, 0x51, 0xa9, 0x3d,
  0xb4, 0xe8, 0x66, 0xbd, 0xff, 0x01, 0x84, 0xbb, 0xe6, 0xfe, 0x4d, 0xbd,
  0x15, 0x5d, 0x05, 0xbd, 0xe3, 0x3a, 0x26, 0xbf, 0xc3, 0xba, 0x23, 0xbb,
  0x7f, 0xfb, 0xa1, 0x3d, 0xd4, 0x8f, 0x29, 0xbd, 0x92, 0x89, 0x31, 0xbe,
  0xdc, 0x27, 0x9b, 0xbe, 0xf2, 0x26, 0x34, 0x3e, 0xb4, 0xe1, 0x59, 0x3d,
  0x3e, 0x1f, 0xa7, 0xbd, 0xd2, 0x8a, 0x42, 0x3e, 0x6b, 0x73, 0x89, 0xbd,
  0x25, 0xd0, 0x18, 0xbe, 0x62, 0x78, 0x97, 0xbd, 0xf6, 0xfe, 0xea, 0x3d,
  0x8f, 0xea, 0x17, 0xbe, 0x9e, 0xcd, 0x41, 0xbe, 0xd4, 0x95, 0x6c, 0xbf,
  0x49, 0x8a, 0xa7, 0xbe, 0x0d, 0x03, 0x0b, 0x3e, 0xce, 0x6f, 0xc4, 0xbe,
  0x69, 0x14, 0x51, 0xbe, 0x2b, 0x29, 0xfa, 0xba, 0xcc, 0xdb, 0x2b, 0xbf,
  0xae, 0x89, 0x86, 0xbd, 0xaf, 0xe1, 0x5c, 0xbd, 0x9c, 0xa2, 0xa6, 0xbe,
  0xb0, 0x86, 0xa1, 0xbd, 0x2c, 0x80, 0x4d, 0xbd, 0x22, 0x46, 0x31, 0xbe,
  0xc9, 0x23, 0x4b, 0x3b, 0xad, 0x87, 0xee, 0xbe, 0x99, 0x21, 0xdc, 0xbc,
  0x3c, 0x84, 0xb4, 0xbe, 0xde, 0x6d, 0xff, 0x3c, 0x5f, 0x68, 0xc5, 0xbd,
  0xde, 0xec, 0xb1, 0xbd, 0x6c, 0x65, 0x80, 0xbe, 0xda, 0xb5, 0x1c, 0x3e,
  0xb8, 0x1e, 0xaa, 0xbe, 0x3a, 0x2d, 0x00, 0x3d, 0xb9, 0xd1, 0x04, 0xbe,
  0xb4, 0xae, 0xd6, 0xbd, 0x68, 0xd9, 0x00, 0xbe, 0xb2, 0xf4, 0xb2, 0x3c,
  0x4b, 0x6f, 0x84, 0xbe, 0xa6, 0x9b, 0x39, 0xbd, 0x54, 0x04, 0x1e, 0xbe,
  0x6c, 0x52, 0x1d, 0xbd, 0xf7, 0x43, 0xec, 0xbe, 0x3e, 0xd6, 0x19, 0xbe,
  0xec, 0x66, 0x29, 0xbe, 0x57, 0x16, 0xe2, 0xbd, 0x6a, 0x7d, 0xb5, 0xbd,
  0x60, 0x9b, 0x85, 0xbe, 0x6e, 0x38, 0x95, 0xbd, 0x4c, 0x35, 0x04, 0xbe,
  0xd1, 0xed, 0xbc, 0xbe, 0x1e, 0xac, 0x80, 0xbd, 0x21, 0x20, 0xd5, 0xbc,
  0x1f, 0x1a, 0x26, 0xbe, 0x7c, 0x1d, 0xa3, 0x3e, 0x52, 0xd1, 0xe5, 0xbd,
  0xea, 0x6a, 0x6c, 0xbe, 0xa6, 0x18, 0xc8, 0x3d, 0x47, 0x2e, 0x3a, 0xbe,
  0x34, 0x81, 0x7d, 0xbe, 0xdb, 0x1e, 0x9f, 0xbd, 0xfc, 0xed, 0x2e, 0x3e,
  0xa4, 0xed, 0x23, 0x3e, 0x2b, 0xb3, 0x7c, 0x3d, 0x08, 0x89, 0xf6, 0xbd,
  0xa0, 0x2f, 0x6f, 0x3d, 0x54, 0x30, 0x3a, 0xbe, 0x98, 0x87, 0x15, 0xbe,
  0x9e, 0xb4, 0x99, 0xbe, 0x9d, 0x91, 0x23, 0x3e, 0xb6, 0xfa, 0x27, 0xbe,
  0xcd, 0x8b, 0x3f, 0xbd, 0x83, 0xc7, 0x28, 0x3d, 0x7c, 0x7c, 0x4f, 0xbe,
  0xe8, 0xa4, 0x95, 0xbe, 0x05, 0x63, 0x8d, 0x3d, 0x66, 0x89, 0x55, 0x3d,
  0x1c, 0xb5, 0xb5, 0xbe, 0x6b, 0x7f, 0xdd, 0xbe, 0xb1, 0xe2, 0xb5, 0xbe,
  0x1f, 0x6f, 0x29, 0xbd, 0xb0, 0x49, 0xab, 0xbd, 0x5a, 0x8b, 0xbc, 0xbb,
  0x71, 0x23, 0x55, 0x3d, 0x0d, 0x1f, 0x20, 0x3e, 0x40, 0x24, 0x60, 0x3d,
  0xed, 0x81, 0xcc, 0xbd, 0xff, 0xb7, 0x14, 0x3d, 0x21, 0x81, 0x9c, 0xbe,
  0x88, 0x63, 0xf4, 0x3d, 0xdf, 0x60, 0x55, 0xbe, 0xfa, 0x7a, 0xa4, 0x3c,
  0x18, 0xef, 0x1a, 0x3d, 0x02, 0x45, 0x55, 0x3e, 0x55, 0x84, 0x4b, 0x3e,
  0x6f, 0xff, 0x4e, 0xbe, 0xa4, 0x8f, 0xd3, 0xbe, 0xc3, 0xe0, 0x19, 0x3d,
  0x64, 0x99, 0x50, 0x3e, 0xdb, 0x0c, 0xa4, 0xbd, 0x66, 0xe0, 0x7c, 0xbe,
  0x92, 0xdc, 0x89, 0x3e, 0xc2, 0x5b, 0xf8, 0xbd, 0x39, 0xcb, 0xea, 0x3c,
  0x2e, 0x96, 0x4e, 0x3e, 0xde, 0x2f, 0x27, 0x3d, 0xe3, 0xb7, 0xfd, 0x3e,
  0x09, 0x8b, 0x1a, 0xbd, 0x9e, 0xe5, 0x10, 0x3d, 0x67, 0xd0, 0x6d, 0xbd,
  0x0e, 0xea, 0x97, 0x3e, 0x2e, 0x2f, 0xa9, 0xbd, 0x0c, 0x81, 0x9c, 0x3e,
  0x41, 0x20, 0x03, 0x3e, 0x68, 0xe9, 0x24, 0x3d, 0xf4, 0xa8, 0x31, 0x3d,
  0x27, 0xe0, 0xd9, 0xbe, 0x0b, 0x11, 0xa0, 0xbd, 0x6a, 0xdc, 0x17, 0x3e,
  0x35, 0xd8, 0x2a, 0x3c, 0xe1, 0xa5, 0x91, 0xbd, 0xa6, 0x32, 0xd5, 0xbd,
  0x5e, 0xa8, 0x03, 0x3f, 0x4e, 0x8f, 0x97, 0x3e, 0xf1, 0xff, 0x15, 0x3e,
  0x8c, 0x2e, 0xb2, 0xbe, 0xc5, 0x4c, 0xea, 0x3e, 0xc7, 0x0d, 0x99, 0xbe,
  0x85, 0xc1, 0x60, 0x3e, 0x79, 0xff, 0x1d, 0x3e, 0xa0, 0xbb, 0x73, 0x3e,
  0x50, 0x2a, 0x17, 0x3e, 0x7d, 0xd4, 0x97, 0xbd, 0xc2, 0x97, 0xd0, 0xbd,
  0xf7, 0x6e, 0x80, 0xbe, 0xea, 0x1d, 0x1e, 0x3d, 0x06, 0x0c, 0x2b, 0xbe,
  0x03, 0x81, 0x94, 0xbe, 0x14, 0x70, 0x50, 0x3e, 0xb2, 0x53, 0x4d, 0xbd,
  0xd3, 0x4d, 0xcd, 0x3a, 0x6c, 0xd3, 0xbf, 0xbd, 0x6b, 0x3b, 0x6f, 0x3d,
  0xd6, 0x2b, 0xed, 0xbe, 0x9d, 0xcb, 0xb2, 0x3d, 0x06, 0xc4, 0x88, 0x3e,
  0xd9, 0x8c, 0xa4, 0x3e, 0x4e, 0x2f, 0x1b, 0xbe, 0x19, 0x38, 0x3f, 0x3d,
  0x90, 0xa8, 0x5e, 0xbe, 0x57, 0x90, 0xf8, 0xbe, 0x3b, 0x9e, 0xfd, 0xba,
  0x80, 0x42, 0xdf, 0xbc, 0x65, 0x15, 0x53, 0xbe, 0x1c, 0x01, 0xe1, 0xbd,
  0x90, 0xbd, 0xe9, 0xbd, 0x45, 0x91, 0x78, 0xbe, 0x0b, 0x8f, 0xc2, 0xbe,
  0x23, 0xe5, 0x7f, 0x3e, 0x70, 0x0b, 0x09, 0xbf, 0x33, 0x23, 0x9b, 0x3d,
  0xc6, 0x66, 0x8c, 0x3e, 0x42, 0x06, 0x8b, 0x3e, 0xd5, 0xc4, 0xe0, 0xbd,
  0xe2, 0xa3, 0xdc, 0xbd, 0x87, 0xe4, 0xa3, 0xbe, 0x76, 0x6e, 0x98, 0xbe,
  0xe7, 0x26, 0x52, 0xbd, 0xc9, 0x73, 0x9e, 0xbd, 0xd8, 0x24, 0xae, 0xbe,
  0xa3, 0x24, 0x43, 0x3b, 0xd7, 0xe4, 0x59, 0xbe, 0x3d, 0x7f, 0xdb, 0xbe,
  0x4a, 0xaf, 0x34, 0xbf, 0x92, 0x94, 0x94, 0x3d, 0x34, 0x7c, 0xb5, 0xbe,
  0x83, 0x67, 0x59, 0x3d, 0xdb, 0xb7, 0x43, 0x3e, 0xe6, 0x86, 0x33, 0x3d,
  0x64, 0xd7, 0xa5, 0x3d, 0x01, 0xed, 0xb7, 0xbe, 0x4a, 0x67, 0x12, 0xbe,
  0xb7, 0xe9, 0x8e, 0xbe, 0xe7, 0x90, 0xc7, 0xbd, 0x0c, 0x10, 0x9b, 0xbc,
  0x5c, 0xe1, 0xab, 0x3e, 0x2d, 0xa6, 0x31, 0x3e, 0x18, 0x6d, 0xd7, 0x3e,
  0x34, 0x16, 0x83, 0xbd, 0xf2, 0xfb, 0x6a, 0x3e, 0x86, 0xd8, 0x4d, 0x3e,
  0x37, 0xc7, 0x13, 0x3e, 0x07, 0x49, 0xda, 0xbc, 0xdd, 0x44, 0x1c, 0xbe,
  0x3c, 0xfa, 0x82, 0xbe, 0x00, 0x35, 0x82, 0xbd, 0xde, 0x4e, 0x2b, 0xbd,
  0x0a, 0x42, 0x8e, 0x3e, 0xf7, 0xed, 0x78, 0xbd, 0x2f, 0xf2, 0xec, 0xbd,
  0xde, 0x42, 0xcf, 0x3d, 0xde, 0x5c, 0xb4, 0x3d, 0x48, 0xc6, 0x07, 0xbe,
  0x61, 0xdd, 0xac, 0x3e, 0x6f, 0x74, 0x0e, 0xbd, 0x5c, 0xfa, 0x23, 0xbe,
  0x67, 0xc3, 0x08, 0x3e, 0x4f, 0x8f, 0x92, 0x3c, 0x05, 0x48, 0x30, 0x3d,
  0x10, 0xb6, 0x2c, 0x3d, 0xda, 0xc6, 0x4e, 0x3b, 0xaf, 0xda, 0x2f, 0x3e,
  0x68, 0x26, 0x92, 0xbd, 0x4f, 0xa8, 0xa4, 0x3c, 0xfd, 0x69, 0x1f, 0x3e,
  0x5a, 0x0f, 0x5d, 0xbb, 0xda, 0x3f, 0x15, 0xbe, 0xab, 0x0f, 0xdb, 0xbd,
  0xaf, 0x11, 0xa9, 0xbe, 0x7f, 0x16, 0x10, 0x3e, 0x48, 0xe0, 0xd4, 0x3d,
  0xb9, 0xb6, 0x88, 0x3d, 0x76, 0x9e, 0xa5, 0xbd, 0x16, 0xa6, 0xd5, 0x3c,
  0x5a, 0x7e, 0x9c, 0x3d, 0x30, 0xf3, 0x3b, 0xbe, 0xca, 0xb3, 0x8d, 0xbe,
  0x9c, 0xe7, 0x88, 0x3d, 0x20, 0x40, 0x96, 0xbd, 0x89, 0x55, 0xa4, 0x3d,
  0x72, 0xcd, 0x2f, 0x3d, 0x8c, 0x0f, 0xce, 0x3c, 0x2f, 0x95, 0x95, 0xbe,
  0x9c, 0xaf, 0xb3, 0x3d, 0xb8, 0xf1, 0x39, 0xbf, 0x4d, 0xd7, 0x50, 0x3d,
  0xdf, 0x20, 0x2b, 0x3e, 0x3a, 0x32, 0x82, 0xbe, 0x2f, 0xce, 0xb9, 0xbe,
  0x8f, 0xec, 0x85, 0x3d, 0xf8, 0xd4, 0x55, 0xbf, 0x70, 0x40, 0x03, 0x3d,
  0x35, 0x19, 0xa0, 0xbe, 0xd9, 0x0b, 0x12, 0xbe, 0xae, 0xac, 0xdc, 0xbd,
  0x38, 0x0c, 0xa6, 0x3d, 0x60, 0x33, 0x79, 0x3e, 0x6b, 0x2b, 0x82, 0xbc,
  0x76, 0xaf, 0xe7, 0xbe, 0x7c, 0x9c, 0xee, 0xbd, 0xce, 0x14, 0xbe, 0xbe,
  0xb9, 0xaf, 0xbf, 0xbd, 0x32, 0xeb, 0x34, 0xbd, 0xe3, 0xf0, 0x1a, 0xbe,
  0x5d, 0x69, 0x4a, 0xbe, 0x8a, 0xbf, 0xd3, 0x3d, 0x33, 0x12, 0x61, 0xbe,
  0x33, 0xe5, 0xbe, 0x3d, 0x7d, 0xb0, 0x6a, 0x3d, 0xb8, 0xa3, 0x1e, 0x3e,
  0xe9, 0x2f, 0xac, 0xbb, 0xbf, 0xd4, 0x90, 0xbe, 0x0b, 0x0c, 0x95, 0xbc,
  0x3d, 0xeb, 0x9a, 0xbb, 0xad, 0x19, 0x3b, 0xbe, 0xeb, 0xb5, 0x3a, 0xbd,
  0xff, 0x2f, 0x66, 0xbe, 0x69, 0xba, 0xdc, 0xbd, 0x7e, 0x2f, 0x05, 0xbe,
  0xa2, 0x67, 0x59, 0xbe, 0xe8, 0x37, 0x2e, 0xbe, 0x22, 0x42, 0x2f, 0xbd,
  0x71, 0xdc, 0x95, 0xbe, 0xc9, 0x09, 0x61, 0xbd, 0x73, 0x87, 0x81, 0x3d,
  0x3b, 0x13, 0xdb, 0xbd, 0xee, 0x35, 0x34, 0x3d, 0x7e, 0x88, 0xc8, 0x3d,
  0x4b, 0x56, 0x02, 0x3d, 0x9c, 0x5d, 0x76, 0xbd, 0x9c, 0xc2, 0x39, 0xbe,
  0x5f, 0x88, 0xad, 0xbe, 0xfb, 0xca, 0x1d, 0x3e, 0x1c, 0xf6, 0x4e, 0xbe,
  0x1d, 0x70, 0x6c, 0xbe, 0x58, 0xd0, 0x43, 0xbe, 0x02, 0x27, 0x8e, 0xbe,
  0x49, 0x97, 0xd1, 0xbc, 0x8f, 0xd9, 0x3f, 0xbe, 0x5b, 0x02, 0x1d, 0xbe,
  0xa6, 0x33, 0x47, 0xbb, 0xdd, 0xc4, 0xb5, 0xbd, 0xb6, 0x57, 0x5d, 0x3e,
  0x88, 0x9d, 0xe4, 0xbd, 0x0f, 0x79, 0x4a, 0xbe, 0x78, 0x91, 0x6c, 0x3b,
  0x57, 0x6f, 0x8d, 0xbe, 0x80, 0x1a, 0x4f, 0xbd, 0x17, 0x7d, 0x13, 0xbd,
  0xc5, 0x3b, 0xfc, 0x3c, 0xd4, 0x6e, 0x47, 0xbe, 0x05, 0x15, 0x8d, 0x3d,
  0x95, 0x9d, 0xfa, 0xbd, 0xee, 0x99, 0xc9, 0x3d, 0xd3, 0x14, 0x46, 0xbe,
  0x7e, 0xeb, 0x58, 0xbc, 0xe7, 0x36, 0x7c, 0xbe, 0x96, 0x1f, 0xe2, 0xbd,
  0x2f, 0x1e, 0x0a, 0xbd, 0xa2, 0xe2, 0xb3, 0x3c, 0x90, 0xa9, 0xbe, 0xbe,
  0xed, 0x76, 0x0e, 0xbe, 0x57, 0xdd, 0x06, 0x3e, 0x4a, 0x81, 0x04, 0xbe,
  0x0b, 0xfc, 0x6a, 0xbe, 0xfd, 0xd8, 0xcb, 0xba, 0xa8, 0x92, 0xdb, 0xbd,
  0x1b, 0xf6, 0xdf, 0x3d, 0x71, 0x34, 0x67, 0x3d, 0x6a, 0x2e, 0x39, 0x3e,
  0xb1, 0x60, 0x83, 0x3c, 0x8c, 0x3f, 0xfb, 0xb9, 0x1b, 0x93, 0x89, 0xbe,
  0x4c, 0x79, 0x37, 0x3e, 0xae, 0xf7, 0xbe, 0xbd, 0x5d, 0x03, 0xe8, 0x3d,
  0xd9, 0x9f, 0x22, 0xbe, 0xfd, 0xf4, 0xd1, 0xbe, 0xd0, 0x29, 0xe7, 0x3d,
  0x22, 0x4f, 0x9b, 0xbd, 0xd2, 0x66, 0x26, 0x3e, 0x4e, 0xe2, 0x4f, 0x3d,
  0x19, 0x0b, 0x08, 0xbb, 0xa8, 0x25, 0x9b, 0x3e, 0x2d, 0x92, 0x18, 0x3b,
  0xf2, 0x68, 0x49, 0x3e, 0x02, 0xba, 0x8b, 0x3e, 0x7a, 0xe4, 0x5a, 0xbe,
  0xf0, 0x3f, 0x8f, 0xbd, 0xf6, 0xb1, 0x23, 0x3d, 0xd7, 0x1c, 0x26, 0xbc,
  0xec, 0xb9, 0x9e, 0x3d, 0xac, 0xc7, 0xb0, 0x3d, 0x74, 0x6e, 0x7f, 0xbe,
  0x63, 0x90, 0x56, 0x3e, 0xd4, 0x4d, 0xdf, 0x3d, 0xed, 0x78, 0x0c, 0x3e,
  0xbb, 0xc8, 0x06, 0x3e, 0x86, 0x2c, 0xdb, 0xbe, 0x45, 0xa8, 0x3e, 0x3e,
  0x49, 0x97, 0x5d, 0x3d, 0x31, 0x6b, 0x84, 0x3d, 0x87, 0x5b, 0x2b, 0x3d,
  0x7d, 0xcf, 0x6c, 0x3e, 0x01, 0x13, 0xb4, 0x3c, 0x56, 0x12, 0xa0, 0xbd,
  0x5c, 0x89, 0x81, 0xbe, 0x03, 0xa7, 0xdd, 0x3c, 0xa2, 0x70, 0x92, 0x3b,
  0x49, 0x8d, 0xea, 0xbe, 0xb3, 0xbb, 0xb6, 0x3d, 0x86, 0x7c, 0x37, 0xbe,
  0x09, 0x5d, 0x6a, 0x3d, 0x76, 0xa7, 0x86, 0x3c, 0x55, 0xc3, 0x07, 0xbd,
  0xc5, 0x73, 0x09, 0xbe, 0xa2, 0x2e, 0x23, 0xbe, 0x88, 0xd6, 0x25, 0x3e,
  0x4c, 0xa8, 0xd2, 0x3c, 0x7f, 0xec, 0x92, 0xbe, 0x4d, 0xa6, 0x2f, 0xbe,
  0xb2, 0x9b, 0x42, 0xbe, 0x0d, 0x89, 0xd6, 0xbc, 0xdc, 0x40, 0x48, 0x3d,
  0x7a, 0xec, 0x39, 0xbe, 0x5a, 0x68, 0xaf, 0xbe, 0x2a, 0x3b, 0x94, 0x3d,
  0x67, 0x02, 0x32, 0xbe, 0x49, 0xc2, 0x6b, 0xbe, 0xad, 0x29, 0x4a, 0xbe,
  0xe8, 0x50, 0x05, 0xbe, 0x9f, 0x78, 0xa0, 0x3c, 0xc7, 0x35, 0xc3, 0xbd,
  0xe0, 0xe5, 0x6b, 0x3d, 0xbd, 0x86, 0x80, 0x3d, 0x27, 0x6b, 0xba, 0x3d,
  0xc5, 0x99, 0x65, 0xbe, 0xaa, 0xec, 0xf0, 0xbd, 0xe5, 0xc5, 0xf5, 0xbd,
  0x19, 0x85, 0x71, 0x3b, 0xb4, 0x42, 0x08, 0xbd, 0x5b, 0xa8, 0xa6, 0xbe,
  0x1d, 0xe1, 0xa4, 0x3d, 0x5f, 0xbf, 0x01, 0xbd, 0x6d, 0x92, 0x4e, 0xbe,
  0x16, 0xeb, 0x65, 0xbe, 0xc0, 0x5e, 0x8d, 0xbe, 0x06, 0xcb, 0x0d, 0x3e,
  0x8b, 0xdb, 0xa5, 0xbe, 0xec, 0xb0, 0xb2, 0x3e, 0x01, 0x93, 0x98, 0xbd,
  0xc6, 0xff, 0x8a, 0xbe, 0xf5, 0x87, 0x48, 0xbe, 0xaf, 0x78, 0xb4, 0x3d,
  0xc0, 0xc4, 0x9a, 0xbc, 0xef, 0x50, 0xe4, 0x3d, 0x93, 0xc8, 0x60, 0xbd,
  0x5c, 0x85, 0xf2, 0xbe, 0x13, 0xe8, 0xf1, 0x3b, 0xfb, 0x7b, 0x96, 0xbe,
  0x89, 0x14, 0x25, 0xbe, 0x5c, 0xc4, 0x50, 0x3d, 0x20, 0xac, 0xb6, 0x3d,
  0xce, 0x67, 0x63, 0xbe, 0x2c, 0x04, 0x1d, 0xbf, 0x8f, 0x11, 0x46, 0x3e,
  0xa3, 0xae, 0x3a, 0xbc, 0x12, 0x2d, 0xcb, 0xbe, 0x51, 0xdf, 0x25, 0x3d,
  0xf3, 0x21, 0xc7, 0x3d, 0x93, 0x8d, 0xd5, 0x3d, 0x43, 0xc2, 0x7e, 0x3e,
  0xe1, 0x3d, 0x96, 0x3d, 0xbe, 0x89, 0x17, 0x3c, 0x1f, 0xc4, 0x02, 0xbe,
  0xeb, 0x2f, 0x22, 0x3c, 0x14, 0x91, 0xb5, 0x3d, 0x33, 0xaa, 0xd6, 0x3e,
  0xd2, 0x0d, 0xa0, 0x3d, 0x51, 0x37, 0x0b, 0xbf, 0x43, 0x31, 0x37, 0x3e,
  0x87, 0xff, 0x81, 0x3e, 0xae, 0x3b, 0xc5, 0xbe, 0x42, 0x66, 0xc8, 0x3e,
  0xdf, 0xf3, 0x16, 0xbe, 0x0d, 0x13, 0xe2, 0x3d, 0x8f, 0x6d, 0x44, 0x3e,
  0x8b, 0x20, 0x5d, 0x3d, 0x09, 0x5f, 0xe0, 0x3d, 0x44, 0x40, 0xe2, 0x3c,
  0x6b, 0x56, 0xe0, 0xbe, 0x98, 0x83, 0x86, 0x3e, 0x93, 0x05, 0x83, 0xbd,
  0x19, 0x1c, 0x83, 0x3e, 0x1c, 0x4d, 0x54, 0xba, 0x37, 0x04, 0xb8, 0xbe,
  0x71, 0x0e, 0x5b, 0x3d, 0x09, 0x7e, 0x4c, 0x3d, 0x39, 0x90, 0xa6, 0xbe,
  0xa4, 0xf3, 0xd4, 0x3e, 0x2f, 0x06, 0x8b, 0x3c, 0x11, 0xfd, 0x09, 0x3e,
  0x34, 0x4e, 0x1d, 0x3e, 0x6a, 0xdc, 0x87, 0x3e, 0xc7, 0xc0, 0xc9, 0x3d,
  0x3a, 0xf0, 0xa5, 0x3d, 0x5f, 0x77, 0x13, 0xbf, 0xfe, 0xa9, 0x1f, 0xbd,
  0x3e, 0xd6, 0x7f, 0x3d, 0xd2, 0xf1, 0x1f, 0x3e, 0x24, 0xfb, 0x35, 0x3d,
  0xf5, 0x28, 0x0c, 0xbf, 0xb9, 0x13, 0x11, 0xbe, 0x6a, 0x6f, 0xc3, 0x3d,
  0x39, 0x6a, 0xcc, 0xbe, 0xd8, 0x68, 0x02, 0xbd, 0x8e, 0xc2, 0xa4, 0xbd,
  0x27, 0xa4, 0x26, 0xbc, 0x84, 0x29, 0x67, 0x3e, 0x31, 0xbb, 0xc2, 0xbd,
  0xed, 0x22, 0x2a, 0xbb, 0xfc, 0x53, 0x73, 0x3d, 0x2c, 0xf7, 0x5d, 0xbe,
  0x04, 0x0c, 0xa4, 0x3d, 0x36, 0xe7, 0x88, 0x3c, 0xb6, 0x80, 0xe5, 0x3e,
  0xd8, 0x50, 0xc5, 0x3c, 0x1b, 0x52, 0x11, 0xbf, 0x79, 0xfa, 0xf0, 0xbd,
  0x44, 0x64, 0x33, 0xbe, 0x3e, 0xfb, 0xd5, 0xbe, 0x9a, 0x59, 0x88, 0x3d,
  0x70, 0x4a, 0x23, 0xbe, 0x92, 0xff, 0x98, 0xbb, 0x31, 0x11, 0x68, 0x3d,
  0xc0, 0x7f, 0x1d, 0x3b, 0x4c, 0x97, 0x43, 0x3e, 0x35, 0x6f, 0x7b, 0x3d,
  0x0c, 0x5e, 0xac, 0xbe, 0xc0, 0x0d, 0xbf, 0xbd, 0x4d, 0xc9, 0x0a, 0x3e,
  0x71, 0x2c, 0xc3, 0x3e, 0x4d, 0x7f, 0x6b, 0xbd, 0x23, 0xa9, 0x39, 0xbe,
  0x2b, 0x33, 0x28, 0xbe, 0x2a, 0xdd, 0x06, 0xbe, 0xc7, 0x4d, 0x92, 0xbe,
  0xf9, 0x7b, 0x1b, 0xbe, 0x54, 0xd3, 0xe3, 0xbd, 0x93, 0x5d, 0xab, 0xbc,
  0x9e, 0x6e, 0x19, 0x3e, 0x98, 0x00, 0x10, 0x3e, 0xb4, 0x27, 0x0b, 0xbd,
  0xb4, 0x15, 0xbc, 0x3d, 0x73, 0xe7, 0xe4, 0xbe, 0x15, 0x0a, 0x18, 0x3e,
  0x8b, 0x7a, 0x9a, 0x3d, 0x0c, 0x30, 0x01, 0xbd, 0x6c, 0xf7, 0x01, 0x3c,
  0x11, 0x51, 0xd3, 0x3b, 0x51, 0x87, 0x33, 0xbc, 0x58, 0xc5, 0x1a, 0x3d,
  0xba, 0x8d, 0xd6, 0xbe, 0x13, 0x77, 0x5e, 0xbe, 0x8e, 0xa3, 0xd3, 0xbd,
  0xc1, 0xd5, 0xce, 0x3d, 0xc9, 0xb5, 0xf8, 0x3c, 0x66, 0x75, 0xa7, 0x3d,
  0x55, 0x13, 0xd6, 0xbc, 0x34, 0x66, 0x8d, 0x3d, 0x02, 0x02, 0x96, 0xbe,
  0x87, 0x0d, 0x29, 0xba, 0x72, 0xd9, 0x1d, 0xbe, 0xb0, 0x07, 0x40, 0xbc,
  0x84, 0x4f, 0x77, 0xbd, 0x41, 0x3d, 0x01, 0x3e, 0xb3, 0x08, 0xdf, 0xbd,
  0x79, 0x0c, 0x11, 0xbc, 0x89, 0xac, 0x2a, 0xbe, 0x32, 0x89, 0xb3, 0xbd,
  0x66, 0x54, 0x1a, 0x3e, 0x68, 0xaa, 0x1e, 0x3e, 0xf9, 0x65, 0xd1, 0xbd,
  0xad, 0x89, 0x94, 0x3d, 0x09, 0x68, 0x14, 0x3e, 0x81, 0x3f, 0xe1, 0xbb,
  0xf6, 0xef, 0xa3, 0xbd, 0xb9, 0xaa, 0xf7, 0xbc, 0x9c, 0x4c, 0x3b, 0xbe,
  0x91, 0x0d, 0x0e, 0x3d, 0x2f, 0xc0, 0x9c, 0xbe, 0x68, 0x67, 0x81, 0x3d,
  0x44, 0x6b, 0x19, 0xbe, 0x3b, 0x69, 0x07, 0xbe, 0x5f, 0x9e, 0x98, 0xbe,
  0x3d, 0xc2, 0x02, 0x3e, 0x81, 0x82, 0x3d, 0x3d, 0xd9, 0x45, 0x38, 0xbe,
  0x34, 0xfc, 0x2d, 0xbe, 0xb1, 0x9d, 0x2c, 0x3c, 0xf2, 0x5b, 0x8e, 0xbd,
  0x0d, 0xfa, 0x23, 0xbe, 0xf5, 0x45, 0xaa, 0xbd, 0x57, 0xd1, 0x9c, 0xbc,
  0xe0, 0x46, 0x60, 0x3d, 0xd0, 0x9d, 0x87, 0x3d, 0xb3, 0xad, 0x2c, 0x3c,
  0x91, 0x14, 0xab, 0x3d, 0x75, 0x6a, 0x91, 0xbd, 0x5f, 0x5a, 0xd9, 0xbc,
  0xd4, 0x53, 0x4d, 0xbd, 0x4c, 0xda, 0xb5, 0xbd, 0x6b, 0x86, 0xbf, 0xbd,
  0x42, 0x3c, 0xdb, 0x3d, 0xe2, 0xe8, 0x21, 0xbd, 0xff, 0xf4, 0x96, 0x3d,
  0x61, 0xd2, 0x9c, 0x3d, 0x99, 0x94, 0x9d, 0xbc, 0xa2, 0x99, 0xda, 0x3c,
  0x4f, 0x27, 0xb3, 0x3d, 0x8b, 0xa7, 0x17, 0x3d, 0x21, 0x6e, 0xf2, 0x3d,
  0x1c, 0xa2, 0x63, 0xbb, 0xe9, 0x2c, 0xb2, 0xbd, 0x4a, 0x10, 0x11, 0xbd,
  0x9e, 0xd3, 0x48, 0x3e, 0xea, 0xe7, 0x5b, 0xbe, 0x91, 0x19, 0xbe, 0x3d,
  0x87, 0x49, 0x65, 0x3e, 0x9a, 0x51, 0xd8, 0xbd, 0x05, 0x3d, 0x17, 0xbc,
  0xb0, 0x33, 0x49, 0xbe, 0x4e, 0xe6, 0x9c, 0x3c, 0xe8, 0x4b, 0xa7, 0xbe,
  0x7c, 0x39, 0x05, 0xbd, 0x92, 0x19, 0x58, 0xbe, 0xe3, 0xf3, 0x63, 0x3d,
  0xc8, 0xa1, 0x0a, 0x3e, 0x3d, 0xf9, 0xa0, 0xbe, 0x90, 0xad, 0xab, 0xbc,
  0x6f, 0xa5, 0x34, 0xbe, 0x72, 0x97, 0x6e, 0xbb, 0xdd, 0x14, 0x08, 0xbd,
  0x3f, 0xeb, 0x21, 0x3e, 0xf6, 0x83, 0x0b, 0xbd, 0x42, 0x88, 0xbc, 0x3d,
  0x5d, 0xf8, 0xc0, 0xbd, 0xb3, 0xfb, 0x42, 0x3e, 0x37, 0xb2, 0xf7, 0xbd,
  0x88, 0x28, 0x84, 0xbd, 0x16, 0xaa, 0x73, 0xbe, 0x95, 0xc2, 0x3a, 0xbe,
  0x52, 0x9d, 0xa2, 0xbd, 0x26, 0x71, 0x9a, 0xbd, 0xe8, 0x1e, 0x63, 0xbd,
  0x4e, 0x97, 0xc8, 0x3d, 0x3d, 0xef, 0xa5, 0xbd, 0x11, 0xbb, 0x18, 0xbe,
  0x74, 0xe5, 0x1c, 0x3d, 0xc4, 0xc2, 0xce, 0x3d, 0x68, 0x54, 0xd0, 0xbd,
  0x0c, 0x57, 0x92, 0xbe, 0xbb, 0x4c, 0xfa, 0xbd, 0x46, 0x2b, 0xc0, 0x3b,
  0x71, 0x8f, 0xe6, 0x3d, 0x29, 0x63, 0x8d, 0xbe, 0x40, 0x6f, 0x92, 0xbe,
  0xc6, 0x00, 0x77, 0xbc, 0x48, 0xae, 0xb6, 0xbc, 0x61, 0xc7, 0x96, 0xbd,
  0x17, 0xa5, 0x35, 0xbe, 0xa2, 0x9d, 0x3c, 0xbd, 0x11, 0x80, 0x93, 0xbd,
  0x44, 0xa8, 0x0c, 0xbc, 0x57, 0xd9, 0x38, 0xbe, 0xe1, 0xbf, 0xf7, 0xbd,
  0x11, 0xb7, 0xae, 0xbc, 0x15, 0xe8, 0x69, 0x3e, 0x49, 0xbb, 0x06, 0xbe,
  0xf7, 0x6c, 0x7c, 0x3d, 0xa3, 0x97, 0xf8, 0xbc, 0x9d, 0x96, 0x81, 0xbe,
  0xb7, 0x3d, 0x04, 0xbe, 0xd8, 0x93, 0xb4, 0xbe, 0xf5, 0x73, 0x39, 0xbe,
  0xcc, 0xf4, 0x17, 0x3d, 0xb8, 0x0a, 0x16, 0x3e, 0xbd, 0xf0, 0xdb, 0xbd,
  0x78, 0x09, 0x20, 0xbf, 0x30, 0x79, 0x9f, 0x3c, 0x1a, 0x5e, 0xa6, 0x39,
  0x2a, 0xf8, 0x9f, 0xbe, 0x74, 0x78, 0xb4, 0xbd, 0x4c, 0x92, 0x36, 0x3d,
  0x4d, 0x1d, 0x90, 0x3d, 0x35, 0x48, 0x36, 0x3e, 0x10, 0x28, 0x76, 0x3c,
  0x47, 0xc3, 0xaa, 0x3c, 0xf9, 0x28, 0x4d, 0xbe, 0x91, 0xe0, 0x15, 0x3d,
  0x34, 0x74, 0xd1, 0x3d, 0x23, 0x01, 0x90, 0x3e, 0xeb, 0x68, 0x54, 0xbd,
  0x62, 0xda, 0x07, 0xbf, 0x2b, 0x2d, 0x62, 0x3e, 0xef, 0x50, 0x3e, 0x3e,
  0xf2, 0x0e, 0xa0, 0xbe, 0x43, 0xc5, 0xdc, 0x3d, 0x80, 0x3b, 0xcf, 0xbd,
  0xf9, 0xbb, 0xa3, 0x3d, 0x0f, 0x08, 0xd0, 0xbc, 0x53, 0x5e, 0x91, 0x3e,
  0x27, 0x07, 0x88, 0x3e, 0xe0, 0xf0, 0xeb, 0x3b, 0xce, 0xa3, 0x2d, 0xbf,
  0xc7, 0x17, 0x30, 0x3d, 0x9c, 0x6b, 0x04, 0xbd, 0x7a, 0xc4, 0x2b, 0x3e,
  0x07, 0x3d, 0xb3, 0x3d, 0x83, 0x4f, 0xcf, 0xbe, 0x10, 0x4c, 0x5e, 0xbd,
  0x3c, 0x4d, 0x2a, 0x3d, 0x57, 0x8e, 0x84, 0xbe, 0x12, 0xf9, 0x28, 0x3e,
  0xe5, 0x07, 0x23, 0xbd, 0x89, 0x3e, 0xe3, 0x3d, 0xae, 0xc3, 0xb3, 0xbb,
  0x03, 0xa1, 0x47, 0x3e, 0xbf, 0x1f, 0x44, 0xbe, 0x9d, 0xf8, 0xc9, 0x3d,
  0x80, 0x82, 0x42, 0xbf, 0x15, 0xf5, 0xc2, 0xbd, 0xbe, 0x04, 0x01, 0xbe,
  0x9a, 0x65, 0x25, 0x3e, 0x48, 0xd4, 0x79, 0xbc, 0x74, 0xd7, 0x42, 0xbe,
  0x17, 0x5a, 0xa5, 0xbd, 0xee, 0xe0, 0x1b, 0x3d, 0x9b, 0x35, 0xb3, 0xbe,
  0x96, 0x3d, 0x66, 0x3c, 0x5b, 0xa8, 0x90, 0xbd, 0x4f, 0x99, 0x37, 0x3c,
  0x13, 0x7f, 0x74, 0x3e, 0x0a, 0x9f, 0xa7, 0x3d, 0x74, 0xf6, 0x1a, 0x3e,
  0x7f, 0x70, 0xb7, 0x3b, 0x84, 0xc0, 0x47, 0xbf, 0x25, 0xe9, 0xdd, 0x3d,
  0x00, 0x4d, 0x5a, 0x3c, 0xc9, 0x0f, 0x6d, 0x3e, 0xc4, 0x11, 0x59, 0x3b,
  0xa1, 0xe7, 0x2e, 0xbf, 0x49, 0xd4, 0x5d, 0x3e, 0x9e, 0x1c, 0x59, 0x3d,
  0x42, 0x3c, 0xc1, 0x3c, 0xd7, 0x00, 0x92, 0x3c, 0x63, 0x97, 0xa0, 0xbd,
  0xa1, 0x8a, 0xda, 0xbd, 0xfe, 0x08, 0x44, 0x3e, 0xf1, 0x43, 0x17, 0x3e,
  0x85, 0x73, 0x69, 0x3e, 0x3f, 0x1b, 0x39, 0x3d, 0x44, 0xf3, 0x02, 0xbe,
  0xe6, 0xdb, 0xc4, 0xbd, 0x13, 0x85, 0x04, 0x3e, 0x98, 0xb2, 0xb4, 0x3e,
  0xa0, 0xc4, 0x16, 0x3c, 0x8a, 0xa6, 0x19, 0xbf, 0xd3, 0x2e, 0xcc, 0xbd,
  0xe4, 0x8f, 0xb5, 0xbc, 0x78, 0xfa, 0xa9, 0xbe, 0xe1, 0xe1, 0x4a, 0xbe,
  0xec, 0x0a, 0x36, 0xbd, 0xbd, 0x77, 0x0f, 0xbd, 0xf5, 0x4e, 0x53, 0x3e,
  0x3b, 0x55, 0xb5, 0x3d, 0xb8, 0xbd, 0x26, 0xbd, 0x18, 0x5b, 0xaf, 0x3d,
  0x79, 0x42, 0x5d, 0xbf, 0x87, 0x50, 0x15, 0x3e, 0x9a, 0xcb, 0x90, 0xbd,
  0xfa, 0xce, 0x17, 0x3e, 0xf2, 0x2f, 0xfe, 0x3d, 0x0e, 0xee, 0x4b, 0x3d,
  0x86, 0xb7, 0x04, 0xbd, 0x67, 0x0c, 0xab, 0x3d, 0x98, 0x51, 0x15, 0xbf,
  0xde, 0x90, 0x48, 0xbe, 0xeb, 0x35, 0x6a, 0xbc, 0x54, 0x5b, 0x05, 0x3e,
  0xef, 0x4a, 0x0b, 0x3e, 0xc8, 0x2a, 0xbe, 0xbc, 0xff, 0x40, 0x66, 0xbc,
  0xef, 0x70, 0x0a, 0xbc, 0x58, 0xcc, 0xfb, 0xbe, 0xeb, 0x7b, 0x6b, 0xbe,
  0x0d, 0x4c, 0x39, 0xbe, 0x79, 0x63, 0x9f, 0xbe, 0x0d, 0x1a, 0x0a, 0xbe,
  0x6e, 0x85, 0xd1, 0xbe, 0xa5, 0x87, 0xc1, 0xbe, 0xce, 0x72, 0xca, 0x3d,
  0xbe, 0x18, 0xf3, 0xbe, 0x26, 0x28, 0xb8, 0xbe, 0x07, 0xe9, 0x29, 0xbe,
  0xf9, 0x5f, 0xbe, 0xbe, 0x90, 0x9e, 0x10, 0x3c, 0xf3, 0x28, 0xe8, 0x3c,
  0xd1, 0x5e, 0xa2, 0x3c, 0xb5, 0x07, 0xd7, 0xbd, 0x12, 0x34, 0xe2, 0xbc,
  0xc6, 0xca, 0x89, 0xbd, 0x31, 0xff, 0xa5, 0x3c, 0x93, 0x04, 0x70, 0xbe,
  0xa4, 0xdb, 0x91, 0xbe, 0x5a, 0xa5, 0x57, 0x3d, 0x57, 0xfc, 0x04, 0xbe,
  0x36, 0xfa, 0xd0, 0x3d, 0x9c, 0x88, 0x38, 0xbe, 0xf3, 0xc4, 0x39, 0xbe,
  0x3b, 0xd7, 0x59, 0xbd, 0x3a, 0xa9, 0x4e, 0xbe, 0x5e, 0x1d, 0xe7, 0x3d,
  0x2d, 0xde, 0xe4, 0xbc, 0xca, 0xea, 0x11, 0xbe, 0x49, 0xe6, 0x1c, 0xbe,
  0xd4, 0xf5, 0x87, 0xbe, 0x3b, 0x05, 0x68, 0xbe, 0x45, 0x35, 0x14, 0xbe,
  0xcb, 0x22, 0x07, 0xbe, 0xbd, 0x98, 0xa9, 0xbe, 0xea, 0x5d, 0x36, 0xbe,
  0xd5, 0x4a, 0x1d, 0xbe, 0xe8, 0x96, 0x6e, 0x3e, 0xcd, 0x3c, 0x9b, 0xbe,
  0x52, 0xdd, 0x12, 0xbe, 0x3e, 0x0b, 0xb3, 0xbe, 0x2b, 0x7b, 0x83, 0xbe,
  0xfe, 0x88, 0xb0, 0xbd, 0xc3, 0x34, 0x08, 0xbe, 0x5f, 0x21, 0xc7, 0xbe,
  0x0e, 0xda, 0x25, 0xbe, 0x51, 0x15, 0x52, 0xbe, 0xd9, 0x1a, 0x2f, 0x3d,
  0xf2, 0x9e, 0x38, 0x3d, 0x57, 0x3c, 0xb1, 0xbe, 0x7f, 0x50, 0x98, 0xbe,
  0xa5, 0x84, 0xe9, 0x3d, 0x10, 0x77, 0x82, 0xbe, 0xbc, 0x1d, 0xb9, 0xbd,
  0x96, 0xe0, 0x48, 0xbe, 0x72, 0x85, 0xcc, 0xbe, 0xba, 0x1d, 0xea, 0xbb,
  0x16, 0x6f, 0x1e, 0xbe, 0xfc, 0x85, 0x96, 0x3d, 0xe3, 0x33, 0xe9, 0xbe,
  0xae, 0x61, 0x70, 0x3d, 0x56, 0x61, 0xa8, 0xbd, 0xa5, 0x14, 0xce, 0xbe,
  0xfe, 0x6b, 0x68, 0x3e, 0x05, 0x18, 0xa3, 0x3c, 0x05, 0x50, 0x53, 0x3d,
  0x0f, 0xf4, 0xe5, 0xbe, 0x67, 0x8b, 0xbe, 0x3d, 0xb2, 0x7e, 0x42, 0xbe,
  0xfa, 0x9a, 0x4b, 0x3c, 0x96, 0xac, 0x83, 0xbe, 0x8d, 0x07, 0xad, 0x3d,
  0x72, 0x0a, 0xa9, 0xbd, 0x49, 0x14, 0xc2, 0xbd, 0x82, 0xc4, 0x32, 0x3d,
  0xc5, 0xf1, 0x9f, 0x3e, 0xb3, 0x08, 0x86, 0x3d, 0x32, 0x6e, 0xbf, 0xbd,
  0xe9, 0x44, 0x49, 0xbe, 0x8f, 0x5e, 0xc1, 0xbd, 0xf3, 0x46, 0x70, 0x3e,
  0xcb, 0x75, 0x26, 0x3e, 0x8f, 0xc2, 0xa7, 0xbe, 0xd8, 0x26, 0xab, 0x3e,
  0xf5, 0x36, 0x0a, 0x3d, 0x45, 0xbe, 0x32, 0x3e, 0x71, 0x79, 0x57, 0xbc,
  0xf3, 0xd2, 0x0a, 0xbe, 0x54, 0x28, 0xd0, 0xbc, 0xc7, 0xc4, 0xa4, 0x3d,
  0x53, 0x66, 0x01, 0xbe, 0x0c, 0x46, 0xc2, 0x3e, 0x2f, 0xb2, 0x2d, 0x3e,
  0x93, 0xf5, 0x36, 0xbe, 0x78, 0x87, 0x05, 0x3d, 0xe9, 0xb6, 0xa0, 0x3e,
  0x81, 0x0d, 0xb8, 0x3d, 0x75, 0x53, 0x29, 0x3e, 0xce, 0xfd, 0x8d, 0x3d,
  0x9d, 0x36, 0xf3, 0x3e, 0x4b, 0xa1, 0xed, 0x3d, 0x6c, 0xdf, 0x6d, 0x3d,
  0xf9, 0xdf, 0x91, 0x3d, 0xfd, 0x18, 0x32, 0xbd, 0x2f, 0x2f, 0x2e, 0x3c,
  0x51, 0xcb, 0xb5, 0xbe, 0x8b, 0xd9, 0x6d, 0xbe, 0x98, 0x54, 0xff, 0x3d,
  0xc3, 0x5b, 0x15, 0x3e, 0xc8, 0xdc, 0xa5, 0x3d, 0x47, 0x64, 0x34, 0x3c,
  0x30, 0x62, 0x0b, 0x3f, 0x09, 0x3f, 0x7d, 0x3e, 0xf8, 0xd4, 0xd0, 0x3e,
  0xcb, 0xe0, 0x31, 0xbe, 0x42, 0x29, 0x28, 0x3e, 0x39, 0x7f, 0x32, 0x3e,
  0x63, 0xc1, 0x05, 0x3b, 0x5c, 0x5d, 0x19, 0xbe, 0x93, 0x13, 0x7d, 0xbe,
  0x0d, 0x4f, 0x7a, 0xbe, 0x37, 0x6b, 0xef, 0xbe, 0xa2, 0x9c, 0x84, 0xbb,
  0x04, 0x1d, 0x08, 0x3f, 0xb7, 0x29, 0xbb, 0xbd, 0xf1, 0x1a, 0x09, 0x3d,
  0xde, 0x44, 0x4c, 0x3e, 0xcd, 0x58, 0x26, 0xbe, 0xaa, 0x0c, 0xb5, 0x3d,
  0x53, 0xe2, 0x5a, 0x3e, 0xb4, 0x5d, 0x8d, 0xbe, 0x61, 0xd3, 0x38, 0xbc,
  0x5e, 0x1e, 0x81, 0xbe, 0x72, 0x51, 0x6b, 0x3d, 0x4c, 0xa3, 0xc6, 0xbd,
  0x8e, 0xec, 0x80, 0xbe, 0x15, 0x40, 0x59, 0x3c, 0x74, 0x41, 0x6b, 0x3e,
  0x0a, 0x4e, 0x1f, 0xbd, 0xfb, 0x1e, 0x4d, 0x3c, 0x9a, 0x91, 0x4e, 0xbe,
  0xe6, 0xfc, 0x93, 0xbc, 0x0d, 0xdb, 0xbe, 0xbe, 0xd7, 0xac, 0x5a, 0xbe,
  0x6d, 0x59, 0x94, 0x3d, 0xa2, 0x18, 0xeb, 0xbe, 0xee, 0x75, 0x7a, 0xbe,
  0x48, 0x7d, 0x05, 0xbe, 0xd7, 0xcd, 0x47, 0xbe, 0x80, 0xcc, 0xab, 0x3d,
  0x30, 0xf4, 0x2c, 0xbe, 0x5f, 0x46, 0xf8, 0xbd, 0xfa, 0xa2, 0x3a, 0xbe,
  0xf6, 0x71, 0x62, 0xbd, 0x83, 0xba, 0x96, 0x3d, 0x9e, 0x73, 0xf4, 0xbd,
  0xfc, 0x53, 0x6e, 0x3d, 0x4c, 0x08, 0xab, 0x3c, 0xb8, 0x59, 0x9e, 0xbe,
  0xe3, 0x30, 0x3d, 0xbe, 0xc7, 0x83, 0x07, 0xbe, 0xc2, 0x04, 0x56, 0xbe,
  0x75, 0xc2, 0x8d, 0xbd, 0x2a, 0x25, 0xce, 0xbe, 0x57, 0x1d, 0x5a, 0xbe,
  0x49, 0xa7, 0x9a, 0x3d, 0x55, 0x85, 0xd7, 0xbe, 0x63, 0x83, 0xff, 0xbd,
  0x9b, 0xfc, 0x50, 0xbe, 0x63, 0xd1, 0x6b, 0xbe, 0x54, 0x46, 0x9d, 0x3d,
  0xb1, 0xd0, 0x9e, 0xbe, 0xd5, 0xf3, 0x74, 0xbb, 0xa4, 0x9c, 0x0b, 0xbd,
  0x76, 0x7d, 0x70, 0xbe, 0x97, 0x92, 0xe2, 0x3d, 0x9f, 0xe9, 0x93, 0xbe,
  0x1d, 0xc1, 0x86, 0xbe, 0xab, 0x70, 0xb0, 0xbe, 0xbc, 0x18, 0x7a, 0x3e,
  0xcf, 0x86, 0xb2, 0xbe, 0x0d, 0xe3, 0xfd, 0x3c, 0xc6, 0xf2, 0xc7, 0xbe,
  0xd3, 0x5f, 0x28, 0xbd, 0x00, 0x21, 0x57, 0xbe, 0x53, 0x17, 0x4f, 0x3d,
  0x8b, 0xca, 0x2e, 0xbe, 0x43, 0xe7, 0xec, 0xbc, 0xe5, 0x57, 0xaa, 0x3e,
  0x68, 0x45, 0x3d, 0xbd, 0x30, 0x7e, 0xd8, 0xbd, 0x32, 0x57, 0x86, 0xbd,
  0x27, 0xf9, 0xc4, 0x3d, 0x3a, 0xd7, 0x81, 0x3e, 0xe2, 0x10, 0xe9, 0xbe,
  0x1a, 0x9b, 0x3b, 0x3e, 0xed, 0x63, 0xcb, 0x3c, 0x16, 0xfa, 0xe1, 0x3d,
  0x46, 0xef, 0x34, 0xbe, 0xaa, 0x31, 0x6b, 0xbd, 0xe7, 0xa9, 0x61, 0xbd,
  0x11, 0x94, 0x87, 0x3e, 0x5d, 0x42, 0x3f, 0xbc, 0x98, 0x8f, 0x73, 0x3e,
  0xfb, 0x86, 0x95, 0x3e, 0x17, 0x46, 0xcd, 0xbd, 0xda, 0x74, 0xb0, 0xbd,
  0x4e, 0xef, 0x66, 0x3e, 0x8d, 0xa2, 0xcd, 0x3d, 0x8d, 0x4d, 0x15, 0x3e,
  0x90, 0x86, 0xfe, 0xbd, 0x2a, 0x5a, 0xd3, 0x3e, 0x4c, 0x8e, 0xd2, 0x3d,
  0x63, 0xac, 0xab, 0xbd, 0x8c, 0xb5, 0x1e, 0xbb, 0x06, 0x2e, 0xc0, 0xbc,
  0x7a, 0x6c, 0x15, 0x3b, 0x5e, 0xcb, 0xb5, 0xbd, 0x74, 0x9b, 0x54, 0x3d,
  0x39, 0xe0, 0xbe, 0x3d, 0x34, 0xec, 0x15, 0x3e, 0x65, 0xb4, 0x68, 0x3d,
  0x2b, 0x0c, 0x03, 0xbd, 0x5d, 0xed, 0xb2, 0xbe, 0xb0, 0x11, 0x7a, 0xbe,
  0x19, 0xe0, 0x8e, 0xbd, 0x16, 0x79, 0x44, 0x3d, 0x69, 0xbd, 0x65, 0xbe,
  0x94, 0x72, 0xb3, 0xbe, 0x2b, 0xa0, 0x3b, 0x3e, 0xf5, 0xae, 0xce, 0xbd,
  0xde, 0x8b, 0x0a, 0xbe, 0x36, 0x7e, 0x53, 0xbe, 0x03, 0x01, 0xba, 0x3d,
  0x36, 0x4e, 0x7a, 0x3c, 0x95, 0x1c, 0x6d, 0x3c, 0x0e, 0xc5, 0x8f, 0x3e,
  0x4b, 0x6d, 0x85, 0xbd, 0x29, 0x28, 0x2d, 0x3d, 0x2f, 0xad, 0x8e, 0x3d,
  0xea, 0xe6, 0x37, 0x3c, 0x25, 0x8d, 0xeb, 0x3e, 0x86, 0x74, 0x03, 0xbe,
  0x32, 0x3c, 0xd1, 0xbe, 0xd2, 0x9f, 0x4e, 0x3e, 0xf0, 0xa0, 0x09, 0x3e,
  0x5f, 0x1b, 0x7b, 0xbe, 0xd2, 0xaa, 0xcd, 0x3d, 0xd1, 0xa7, 0xba, 0xbe,
  0x0f, 0xba, 0x26, 0xbd, 0xc8, 0x22, 0x19, 0x3e, 0x1e, 0x6a, 0x35, 0x3e,
  0x32, 0xfb, 0xc7, 0xbd, 0x62, 0x20, 0x8e, 0x3d, 0xa6, 0x88, 0xf9, 0xbe,
  0x3d, 0x51, 0x88, 0x3e, 0x1b, 0x2b, 0x4f, 0xbe, 0x16, 0xe7, 0x62, 0x3e,
  0x0a, 0x2c, 0xa3, 0xbc, 0xb4, 0x28, 0x14, 0xbf, 0xd2, 0x01, 0xc0, 0xbc,
  0x86, 0xb9, 0x82, 0xbd, 0x41, 0xbf, 0xc6, 0xbe, 0x9e, 0x61, 0x0e, 0x3e,
  0x4d, 0xf7, 0x37, 0xbe, 0x93, 0x5e, 0x1f, 0xbd, 0xc0, 0x93, 0xd0, 0x3c,
  0x85, 0xd1, 0x92, 0x3e, 0xc9, 0x74, 0x1e, 0xbd, 0x52, 0x2e, 0xa2, 0x3d,
  0xd4, 0x42, 0xa7, 0xbe, 0x32, 0x05, 0x0f, 0xbe, 0xf7, 0xfe, 0x63, 0xbd,
  0x3b, 0x65, 0x7b, 0xbe, 0x4b, 0x67, 0x81, 0xbd, 0x5b, 0x5f, 0x1a, 0xbf,
  0x2b, 0x00, 0x08, 0xbd, 0x33, 0xfe, 0x40, 0x3e, 0x98, 0xe2, 0x7e, 0xbe,
  0xe0, 0x07, 0xbe, 0x3c, 0xe6, 0x19, 0x8e, 0xbe, 0xbe, 0x52, 0xea, 0xbd,
  0x94, 0x7f, 0x32, 0x3e, 0x7e, 0xad, 0x41, 0x3e, 0xf2, 0xa9, 0xcb, 0x3d,
  0x5f, 0x66, 0xab, 0xbc, 0x79, 0x5d, 0xcc, 0x3d, 0x39, 0x31, 0x96, 0x3b,
  0x52, 0x09, 0x0f, 0xbe, 0xc3, 0x9c, 0x08, 0x3e, 0x52, 0x10, 0xb0, 0xbd,
  0x2f, 0xc2, 0x56, 0xbf, 0xd7, 0x3a, 0x95, 0xbd, 0xd7, 0x76, 0x23, 0x3e,
  0x9f, 0x82, 0xaa, 0xbe, 0xef, 0xc4, 0x17, 0xbe, 0x84, 0xf7, 0x1c, 0xbe,
  0xf6, 0x08, 0xc4, 0xbd, 0x4b, 0x68, 0x97, 0x3d, 0x3b, 0x1b, 0x0f, 0x3e,
  0xbc, 0xcb, 0x2d, 0x3e, 0x04, 0xc1, 0x04, 0x3d, 0x2e, 0x68, 0xd8, 0xbd,
  0xb3, 0xa9, 0xc5, 0xbe, 0xec, 0x82, 0xd3, 0xbc, 0xcb, 0x48, 0x13, 0x3e,
  0xac, 0x10, 0x63, 0xbd, 0x54, 0xc4, 0x04, 0xbf, 0x01, 0x0b, 0xb0, 0xbd,
  0xb2, 0x31, 0x7e, 0xbd, 0xdf, 0x10, 0x9a, 0xbe, 0xb5, 0xd6, 0x68, 0xbe,
  0x10, 0xf4, 0xcb, 0xbd, 0x44, 0xb9, 0xe1, 0xbc, 0x4b, 0x26, 0xe9, 0x3d,
  0x74, 0x9d, 0xca, 0xbd, 0x58, 0x2d, 0x9d, 0x3c, 0x09, 0x49, 0x83, 0x3d,
  0x0d, 0x85, 0xa5, 0xbe, 0x81, 0xd9, 0x71, 0x3d, 0x6b, 0xa4, 0x1f, 0x3d,
  0x61, 0x43, 0x3f, 0x3e, 0x25, 0xa5, 0x50, 0x3d, 0xa9, 0x0b, 0x2a, 0x3d,
  0xa5, 0x88, 0x92, 0xbc, 0x41, 0x57, 0x07, 0xbc, 0xd2, 0x13, 0x97, 0xbe,
  0x01, 0x61, 0x8a, 0xbe, 0xf5, 0xe8, 0x36, 0xbe, 0xa3, 0x4e, 0xdf, 0x3d,
  0x97, 0x6a, 0x20, 0x3e, 0xb8, 0x61, 0x27, 0xbc, 0x3b, 0x49, 0xa9, 0x3d,
  0xfb, 0x54, 0x70, 0x3b, 0x19, 0x6c, 0x25, 0xbe, 0xa9, 0x66, 0xbc, 0xbd,
  0x46, 0xe5, 0x41, 0xbd, 0xa7, 0x48, 0x36, 0x3e, 0x5c, 0x40, 0xa1, 0xbe,
  0xb6, 0xe5, 0x93, 0xbd, 0x8e, 0xe4, 0x57, 0xbe, 0x72, 0x40, 0x5e, 0x3e,
  0x92, 0x6a, 0x1e, 0xbe, 0x2f, 0x25, 0x3d, 0xbe, 0xd6, 0x11, 0x51, 0xbd,
  0x60, 0x12, 0xe9, 0xbc, 0x79, 0x1b, 0x87, 0x3d, 0x9d, 0x11, 0x89, 0x3e,
  0x0f, 0x8c, 0xd4, 0x3e, 0x61, 0x01, 0xac, 0x3b, 0x25, 0xd9, 0x08, 0x3d,
  0xe7, 0x27, 0xf2, 0xbd, 0xf4, 0xd0, 0xf9, 0xbd, 0x8e, 0x7d, 0x3e, 0x3e,
  0xd4, 0x92, 0x53, 0xbe, 0x69, 0x05, 0x1d, 0xbe, 0xbc, 0x7e, 0x86, 0x3e,
  0x29, 0x1f, 0x5b, 0x3e, 0x76, 0x59, 0xfb, 0xbd, 0x4d, 0xef, 0x82, 0x3d,
  0x26, 0x6c, 0x72, 0xbe, 0x09, 0xcb, 0x9b, 0x3e, 0x36, 0xce, 0x9e, 0x3c,
  0x99, 0xb4, 0x84, 0x3e, 0x47, 0xe1, 0x66, 0x3e, 0x68, 0x05, 0x6a, 0x3d,
  0x6b, 0xb7, 0x5f, 0xbd, 0x43, 0x58, 0x88, 0xbd, 0xe2, 0x6b, 0x94, 0xbd,
  0xe0, 0xb0, 0xc3, 0x3d, 0xfa, 0xda, 0x4a, 0xbe, 0x44, 0x53, 0xcc, 0x3c,
  0xaf, 0xad, 0x26, 0xbe, 0xb5, 0x64, 0x5a, 0x3e, 0x31, 0x30, 0x2c, 0x3e,
  0x71, 0x0c, 0xc3, 0xbd, 0x94, 0x55, 0x38, 0xbe, 0x5a, 0x4d, 0xd4, 0x3d,
  0xd1, 0xa6, 0x99, 0x3d, 0x9b, 0x3d, 0x33, 0x3e, 0x64, 0x17, 0xb3, 0x3d,
  0x99, 0x5b, 0xbe, 0x3c, 0x09, 0x52, 0x15, 0x3d, 0xec, 0xdf, 0x0d, 0x3d,
  0x5f, 0x46, 0x4a, 0xbd, 0xc4, 0x69, 0x62, 0x3e, 0xbd, 0x6f, 0xff, 0xbd,
  0xa6, 0x5e, 0xb5, 0x3d, 0x97, 0x83, 0xec, 0xbd, 0x75, 0xc2, 0x17, 0x3e,
  0x0c, 0x23, 0x8a, 0x3c, 0x9b, 0x5a, 0x52, 0x3d, 0xe5, 0x10, 0x02, 0xbe,
  0x8c, 0x93, 0x8b, 0x3d, 0x94, 0x48, 0x30, 0x3e, 0x49, 0x5d, 0x69, 0xbc,
  0xdb, 0x9f, 0x6f, 0x3d, 0x90, 0x35, 0xda, 0x3c, 0x32, 0x3a, 0xba, 0x3d,
  0xaf, 0x31, 0x3e, 0xbe, 0xd2, 0xbb, 0x5b, 0xbd, 0x02, 0xc7, 0xdc, 0x3d,
  0x26, 0xa9, 0x93, 0xbe, 0x96, 0x0e, 0x4e, 0xbe, 0xcd, 0xbd, 0x5d, 0xbe,
  0x71, 0x68, 0x50, 0x3e, 0x9b, 0x01, 0x1c, 0xbe, 0xbb, 0xb9, 0x6f, 0xbe,
  0x94, 0xc2, 0xbf, 0xbe, 0xb2, 0x27, 0x92, 0xbd, 0xd9, 0xf9, 0x3c, 0xbb,
  0xbc, 0x21, 0x54, 0x3e, 0xa1, 0x20, 0xd3, 0x3d, 0xe3, 0xb5, 0xc8, 0xbd,
  0xb6, 0x2c, 0x95, 0x3d, 0x95, 0x74, 0x89, 0xbd, 0xe5, 0x2a, 0x3c, 0xbd,
  0xe8, 0xa3, 0x08, 0xbe, 0xd9, 0x5f, 0x45, 0xbe, 0x09, 0xe7, 0xb2, 0xbb,
  0xc1, 0xc3, 0x1d, 0xbd, 0x98, 0x8e, 0x0b, 0x3e, 0xc6, 0x3d, 0xaa, 0x3c,
  0x44, 0xfa, 0x86, 0xbe, 0xde, 0x00, 0xde, 0xbd, 0x05, 0xcd, 0xb6, 0xbd,
  0x9f, 0xa2, 0x72, 0x3d, 0x67, 0x14, 0xc0, 0xbd, 0x68, 0x1d, 0x75, 0xbd,
  0x81, 0x88, 0xdf, 0xbb, 0xfc, 0xb7, 0xbc, 0xbd, 0x7b, 0x03, 0x50, 0xbe,
  0xfc, 0x79, 0x06, 0x3d, 0x4d, 0xe9, 0x0e, 0x3d, 0x0d, 0x78, 0x8b, 0xbe,
  0x5c, 0xb9, 0xb1, 0x3d, 0x99, 0x1a, 0xe0, 0xbd, 0x15, 0x44, 0x4a, 0x3e,
  0x42, 0xaa, 0xbf, 0xbc, 0xde, 0xe4, 0x66, 0xbe, 0xea, 0xb3, 0x80, 0xbe,
  0x54, 0x90, 0x74, 0x3e, 0x5a, 0x8b, 0xcd, 0x3e, 0xfe, 0x79, 0xb9, 0x3c,
  0xf4, 0x7c, 0x1c, 0xbe, 0x5e, 0x17, 0xe1, 0xbd, 0x9a, 0xe5, 0xb9, 0x3d,
  0x3b, 0x1e, 0x2a, 0x3e, 0x0a, 0x31, 0xcb, 0x3d, 0xcd, 0xdd, 0xda, 0x3d,
  0x1e, 0xe7, 0x9a, 0xbd, 0xe0, 0xf7, 0x92, 0x3d, 0xce, 0xfb, 0xce, 0x3d,
  0xfe, 0x16, 0x5f, 0xbd, 0x73, 0x4f, 0xfd, 0x3c, 0xe1, 0x31, 0xf8, 0x3c,
  0x56, 0x00, 0x10, 0x3d, 0xbf, 0x50, 0x83, 0xbd, 0x47, 0x14, 0x8b, 0xbd,
  0x32, 0x7e, 0x4f, 0x3e, 0xf6, 0x94, 0x48, 0xbe, 0x26, 0xab, 0x9f, 0x3c,
  0x1e, 0x75, 0xae, 0x3b, 0x8d, 0x3a, 0xc3, 0xbc, 0x1d, 0x8e, 0x48, 0x3e,
  0x3b, 0xdf, 0xb5, 0x3d, 0x68, 0x11, 0x97, 0x3d, 0xae, 0xde, 0x15, 0xbd,
  0xcb, 0x0c, 0x25, 0xbd, 0xd5, 0xcb, 0x63, 0xbe, 0x96, 0xd3, 0xaf, 0xbc,
  0xed, 0x77, 0x24, 0xbb, 0xef, 0x3d, 0x25, 0x3d, 0x50, 0x10, 0x46, 0x3d,
  0xd9, 0x7f, 0x86, 0xbd, 0x64, 0xf7, 0xb5, 0xbd, 0xab, 0x68, 0x43, 0xbe,
  0x48, 0xde, 0x86, 0x3c, 0xeb, 0x18, 0x15, 0x3d, 0x5d, 0xfe, 0x94, 0xbd,
  0x64, 0x1b, 0xcc, 0xbc, 0x04, 0xcb, 0x2f, 0xbd, 0xd6, 0xa9, 0x3f, 0xbd,
  0x6b, 0xbf, 0x0f, 0xbd, 0x91, 0xc4, 0x67, 0xbd, 0x16, 0xa9, 0x6e, 0xbe,
  0x0e, 0xfd, 0xa1, 0xbc, 0xff, 0xb4, 0xb3, 0x3d, 0x75, 0x90, 0xbb, 0x3d,
  0x4b, 0xbe, 0x92, 0xbc, 0x2b, 0xed, 0x9e, 0xbd, 0x7b, 0xe7, 0xda, 0xbb,
  0x3f, 0x3f, 0x6c, 0xbe, 0x92, 0x0a, 0xae, 0xbc, 0x7f, 0x9d, 0x93, 0xbc,
  0xd1, 0x93, 0x4c, 0xbe, 0xea, 0x23, 0x23, 0x3c, 0xe9, 0x02, 0x89, 0x3b,
  0x97, 0x54, 0x90, 0xbc, 0x57, 0x19, 0x45, 0xbd, 0x37, 0x9a, 0xa4, 0x3c,
  0xdf, 0xc3, 0xaf, 0xbe, 0x3a, 0xb4, 0x90, 0xbc, 0xe8, 0xb3, 0xc2, 0x3d,
  0x61, 0x77, 0x4b, 0x3c, 0x4d, 0xd7, 0xfc, 0x3b, 0x03, 0x6c, 0x5b, 0xbd,
  0x93, 0x8d, 0xa1, 0xbd, 0x78, 0xd4, 0xd3, 0xbd, 0xcc, 0x21, 0x17, 0xbc,
  0xd2, 0x03, 0xab, 0xbd, 0x0f, 0x41, 0x25, 0x3e, 0x78, 0xa4, 0xf1, 0x3c,
  0xa4, 0xc4, 0x4f, 0xbd, 0x7b, 0x89, 0x18, 0x3c, 0xf4, 0x9a, 0x36, 0x3e,
  0x13, 0x40, 0x8b, 0xbc, 0xa2, 0xd2, 0x80, 0xbe, 0x68, 0x29, 0x0e, 0x3d,
  0xb0, 0xa9, 0xca, 0x3d, 0x24, 0x7b, 0x2e, 0x3d, 0x88, 0x87, 0x53, 0xbc,
  0x3b, 0xf2, 0x85, 0x3d, 0x43, 0xcd, 0x42, 0x3e, 0xa5, 0x96, 0x5b, 0x3e,
  0x76, 0x05, 0x93, 0xba, 0x75, 0x0d, 0xde, 0xbb, 0x45, 0x1e, 0x41, 0x3e,
  0x7f, 0x07, 0x05, 0x3e, 0xaa, 0x86, 0x71, 0x3e, 0x50, 0xe9, 0x29, 0x3c,
  0xd3, 0xc2, 0x8e, 0x3e, 0x59, 0xde, 0x35, 0xbc, 0x3a, 0xf1, 0x42, 0xbe,
  0xd2, 0x2b, 0x63, 0x39, 0x0d, 0xb1, 0xb9, 0x3c, 0x38, 0xcc, 0x91, 0x3c,
  0xbd, 0x62, 0xcf, 0xbc, 0xc1, 0xcc, 0x15, 0x3d, 0xc1, 0x7a, 0x9b, 0x3e,
  0x4b, 0xb0, 0x59, 0x3e, 0x94, 0xb0, 0x56, 0x3c, 0xf1, 0x13, 0xe3, 0xbb,
  0x8a, 0x30, 0x0d, 0xbd, 0x5a, 0x43, 0x5c, 0x3c, 0x04, 0x41, 0xf7, 0xbc,
  0x23, 0x13, 0xf0, 0x3c, 0xfd, 0x43, 0xc2, 0x3d, 0x34, 0x7f, 0x17, 0xbc,
  0x14, 0xe2, 0x11, 0xbd, 0x06, 0xfa, 0x85, 0x3c, 0x3b, 0xbb, 0xb6, 0xbb,
  0x0f, 0xcb, 0x31, 0x3d, 0x52, 0x4d, 0xdb, 0xbd, 0x97, 0x0e, 0x8c, 0xbd,
  0xdb, 0xe4, 0x08, 0x3d, 0x12, 0xfc, 0x60, 0x3d, 0x4b, 0xd3, 0x41, 0x3b,
  0x7c, 0x30, 0x8b, 0x3d, 0x8b, 0xf6, 0x12, 0xbe, 0x02, 0x79, 0x89, 0xbe,
  0x99, 0xab, 0x72, 0x3d, 0xff, 0xd0, 0x0f, 0xbf, 0x51, 0x67, 0x24, 0xbd,
  0x27, 0xc5, 0x21, 0x3d, 0xcd, 0xa4, 0xa9, 0x3d, 0xa6, 0xc6, 0xfc, 0xbe,
  0x54, 0x76, 0x27, 0xbe, 0x42, 0x13, 0x04, 0xbe, 0x51, 0x99, 0x81, 0xbe,
  0x8f, 0x9f, 0x21, 0x3c, 0x30, 0x7c, 0x0e, 0x3e, 0x26, 0xdc, 0xa6, 0xbd,
  0x74, 0xb9, 0xeb, 0xbd, 0x99, 0xad, 0x33, 0xbe, 0x9b, 0x48, 0x54, 0x3c,
  0x55, 0xcd, 0x8b, 0xbe, 0x80, 0x42, 0x59, 0xbe, 0x59, 0xab, 0x88, 0xbe,
  0xe1, 0x37, 0x71, 0xbe, 0x34, 0x2a, 0xc9, 0x3c, 0x9a, 0xc7, 0x7d, 0xbd,
  0xc4, 0x0e, 0x84, 0xbb, 0xc5, 0x66, 0x2e, 0xbe, 0x3e, 0x39, 0x60, 0xbe,
  0x36, 0x4a, 0xad, 0x3d, 0x8f, 0xd7, 0xa8, 0x3d, 0x58, 0xb1, 0x25, 0xbe,
  0x44, 0x60, 0x6a, 0x3d, 0x0b, 0x9c, 0xd1, 0xbd, 0x0a, 0x9d, 0x7c, 0xbd,
  0x49, 0xe5, 0x05, 0xbb, 0x19, 0xec, 0xb3, 0x3d, 0xf9, 0x73, 0xe2, 0xbd,
  0xc9, 0xdb, 0x35, 0xbe, 0x89, 0x9f, 0xcc, 0x3d, 0x71, 0x46, 0x4d, 0xbe,
  0x38, 0xfb, 0x3f, 0x3d, 0x30, 0x83, 0x44, 0xbe, 0x52, 0xa3, 0x17, 0xbe,
  0x9a, 0x85, 0x88, 0xbe, 0x1f, 0x97, 0x03, 0xbe, 0x8e, 0xc6, 0x50, 0x3d,
  0x7e, 0x2f, 0x63, 0xbc, 0x03, 0xb6, 0x2a, 0xbe, 0xfe, 0xa0, 0x17, 0xbc,
  0x28, 0xc8, 0xe6, 0xbd, 0x47, 0xe2, 0x07, 0xbd, 0x20, 0x1d, 0x4b, 0xbc,
  0x37, 0x3a, 0x2f, 0xbe, 0x8e, 0xb3, 0x39, 0xbe, 0xcd, 0x1d, 0x36, 0x3d,
  0x64, 0x3d, 0x34, 0x3c, 0x7d, 0x71, 0x3e, 0xbe, 0x6a, 0x50, 0xa8, 0xbe,
  0xd0, 0x24, 0x40, 0xbe, 0x68, 0x36, 0x47, 0x3d, 0x16, 0x3f, 0x29, 0xbe,
  0x47, 0xf7, 0x1e, 0x3e, 0x1c, 0x5c, 0xf1, 0xbd, 0xb0, 0xdc, 0x3a, 0x3e,
  0x9f, 0xaa, 0x5e, 0xbe, 0x83, 0x63, 0x78, 0xbe, 0x70, 0xd0, 0xa2, 0x3d,
  0xac, 0xe0, 0x23, 0xbe, 0x2a, 0xf1, 0x45, 0xbe, 0xad, 0x39, 0x94, 0xbe,
  0xf4, 0xd1, 0x6b, 0x3e, 0x81, 0x70, 0xc6, 0xbd, 0xcc, 0x4b, 0x14, 0x3d,
  0xdd, 0x3e, 0x81, 0xbe, 0x3b, 0xc4, 0x96, 0xbb, 0x5b, 0x6c, 0xc1, 0x3c,
  0xea, 0x93, 0x07, 0xbe, 0x04, 0x8b, 0xd1, 0x3d, 0x6b, 0x56, 0x9e, 0x3e,
  0xb5, 0x80, 0xed, 0x3e, 0x24, 0x26, 0x74, 0xbe, 0x5b, 0x82, 0xb2, 0x3d,
  0xe6, 0xe2, 0x91, 0x3e, 0xb2, 0x30, 0x29, 0x3e, 0xd1, 0x6e, 0x93, 0x3e,
  0xa1, 0x5e, 0xa7, 0xbd, 0x00, 0x1c, 0xd7, 0x3e, 0xf0, 0x2e, 0xa8, 0xbd,
  0x2a, 0x8e, 0x9f, 0x3d, 0x32, 0x3a, 0xc1, 0xbd, 0x77, 0x99, 0xac, 0xbd,
  0x64, 0xa8, 0xb4, 0x3d, 0xce, 0x27, 0xa0, 0x3e, 0xb8, 0x1a, 0xb1, 0x3d,
  0x4f, 0x1c, 0x51, 0x3e, 0xa5, 0xc0, 0x40, 0x3d, 0x58, 0x7f, 0x2f, 0xbe,
  0xe4, 0x76, 0xe9, 0x3d, 0xaa, 0xd9, 0x8c, 0xbc, 0x32, 0x67, 0x05, 0xbc,
  0x66, 0xf7, 0x70, 0x3e, 0xef, 0xd2, 0xa8, 0x3e, 0xef, 0xcd, 0x1e, 0x3d,
  0x6e, 0xa8, 0x28, 0xbe, 0x03, 0x33, 0x45, 0xbe, 0xe8, 0x55, 0xb7, 0xbc,
  0x9a, 0xbf, 0x9f, 0xbb, 0xc3, 0xbe, 0x19, 0x3e, 0xb8, 0xb3, 0xb3, 0xbd,
  0xea, 0x35, 0xbe, 0xbe, 0xed, 0xc2, 0xa1, 0x3d, 0x17, 0x80, 0x28, 0xbe,
  0xc5, 0xc7, 0x3d, 0xbe, 0x91, 0xe3, 0xd7, 0xbd, 0xce, 0x6b, 0x80, 0x3d,
  0x00, 0x66, 0xbf, 0xbe, 0x2e, 0x6c, 0x47, 0xbe, 0x39, 0xc0, 0x4f, 0xbe,
  0x3e, 0x63, 0xc3, 0x3d, 0xbd, 0x2b, 0xaa, 0xbe, 0xe9, 0xf6, 0x0b, 0x3e,
  0x1c, 0xf6, 0x60, 0xbe, 0xa6, 0x5c, 0x00, 0xbd, 0x24, 0x69, 0x91, 0xbe,
  0x0e, 0xa6, 0x85, 0xbe, 0xab, 0x04, 0xdf, 0xbd, 0xcb, 0x99, 0xdc, 0x3d,
  0x02, 0xed, 0xc9, 0x3d, 0xea, 0x9e, 0xe8, 0xbd, 0x9f, 0xfc, 0x02, 0xbe,
  0xbc, 0x65, 0x46, 0x3e, 0xa5, 0xac, 0xa7, 0xbd, 0x4b, 0x6c, 0x9c, 0x3d,
  0x6f, 0xd3, 0x7d, 0x3e, 0xc1, 0xd8, 0x74, 0x3d, 0x1b, 0x3c, 0x7f, 0x3d,
  0x5b, 0x07, 0x77, 0x3e, 0xfb, 0x26, 0x66, 0xbd, 0xf2, 0xe0, 0x40, 0x3e,
  0x6b, 0x34, 0x34, 0xbe, 0xe8, 0xe4, 0x13, 0xbd, 0xd7, 0x02, 0xeb, 0x3d,
  0xbe, 0xa9, 0x07, 0xbd, 0x92, 0x2b, 0x4b, 0x3e, 0x9f, 0x2c, 0xa9, 0xbe,
  0x4a, 0x8c, 0x4f, 0x3c, 0x0d, 0xbf, 0x0c, 0x3e, 0xf4, 0x58, 0x38, 0x3e,
  0x27, 0xfb, 0x87, 0xbd, 0x0a, 0x54, 0x0a, 0x3d, 0x84, 0x92, 0x7a, 0x3e,
  0x63, 0x92, 0xad, 0x3d, 0x0c, 0xec, 0x12, 0x3e, 0x9f, 0xd0, 0x87, 0x3c,
  0x62, 0x1d, 0x9c, 0x3d, 0x91, 0xa4, 0xe6, 0x3d, 0x68, 0x72, 0x3c, 0xbe,
  0xd8, 0x09, 0x4f, 0xbd, 0x06, 0xb8, 0x8d, 0x3d, 0xff, 0x93, 0xae, 0x3d,
  0x2d, 0xf3, 0xc1, 0xbd, 0xbc, 0x2f, 0x8b, 0x3c, 0xee, 0x50, 0x1f, 0x3e,
  0x32, 0x71, 0x34, 0xbe, 0xd9, 0xc9, 0x8c, 0x3e, 0x57, 0x28, 0xc7, 0xbe,
  0xa5, 0x4c, 0x39, 0x3e, 0x38, 0xc6, 0x42, 0xbb, 0xdb, 0x6f, 0x44, 0x3e,
  0x41, 0x0a, 0xc0, 0x3c, 0x4a, 0x5c, 0x01, 0x3e, 0x9c, 0x5d, 0xad, 0xbd,
  0xd2, 0x8e, 0xc1, 0xbd, 0x35, 0x17, 0x21, 0x3e, 0x68, 0xb9, 0x6b, 0xbd,
  0x4e, 0x11, 0x1d, 0x3e, 0x4e, 0x30, 0xcd, 0xbe, 0x53, 0x33, 0xad, 0x3d,
  0xcb, 0x3c, 0x56, 0xbd, 0x16, 0xd4, 0x84, 0xbe, 0xb1, 0xcb, 0x0c, 0xbe,
  0x32, 0x3f, 0x74, 0xbe, 0x38, 0x4f, 0x6d, 0xbd, 0x46, 0x82, 0x30, 0x3e,
  0x2e, 0x5d, 0x95, 0x3e, 0x2d, 0x5e, 0xc4, 0xbd, 0xae, 0xf9, 0xba, 0xbd,
  0x3f, 0xca, 0x03, 0xbe, 0x95, 0xb8, 0x50, 0x3e, 0x67, 0x1b, 0x93, 0x3e,
  0xc0, 0xa4, 0xb1, 0xbd, 0xb0, 0x0b, 0x0d, 0xbe, 0x3e, 0x3b, 0x55, 0xbe,
  0xa0, 0x40, 0xd6, 0x3d, 0x23, 0xd9, 0x8a, 0xbe, 0xf8, 0x25, 0xad, 0xbc,
  0x91, 0x65, 0x6e, 0xbd, 0x68, 0xd4, 0x92, 0x3d, 0x0e, 0x64, 0x22, 0xbe,
  0x38, 0x72, 0xb8, 0x3d, 0xcf, 0x42, 0x85, 0x3e, 0x70, 0xa3, 0x51, 0xbd,
  0xa6, 0x4f, 0x01, 0xbe, 0xee, 0x6a, 0xcc, 0x3d, 0x1f, 0xba, 0x0b, 0x3d,
  0xf0, 0xc0, 0x8d, 0xbd, 0xc8, 0xcf, 0xbe, 0xbd, 0x67, 0x24, 0x73, 0x3c,
  0x42, 0xb7, 0xb5, 0xbe, 0x22, 0x74, 0x62, 0x3d, 0x14, 0xb8, 0xae, 0x3d,
  0x1d, 0x2d, 0x3d, 0xbe, 0xa0, 0x13, 0x57, 0x3d, 0x40, 0xad, 0xd5, 0xbd,
  0x71, 0x74, 0xcc, 0xbc, 0x3c, 0xc2, 0x0c, 0xbe, 0xf2, 0xc5, 0xeb, 0x3d,
  0x98, 0x53, 0xd1, 0xbc, 0x45, 0xf7, 0x9d, 0xbe, 0x5c, 0xee, 0xbc, 0xbd,
  0x46, 0xa6, 0xa7, 0x3c, 0xf3, 0xc4, 0x64, 0x3e, 0xc0, 0x9f, 0x84, 0x3b,
  0x2f, 0xcb, 0x88, 0xbe, 0x88, 0xb3, 0x89, 0xbe, 0x96, 0xc6, 0x95, 0xbd,
  0x66, 0xfd, 0xff, 0xff, 0x10, 0x00, 0x00, 0x00, 0x07, 0x00, 0x00, 0x00,
  0x14, 0x00, 0x00, 0x00, 0x2c, 0x00, 0x00, 0x00, 0x02, 0x00, 0x00, 0x00,
  0x10, 0x00, 0x00, 0x00, 0x70, 0x00, 0x00, 0x00, 0x17, 0x00, 0x00, 0x00,
  0x73, 0x65, 0x71, 0x75, 0x65, 0x6e, 0x74, 0x69, 0x61, 0x6c, 0x2f, 0x64,
  0x65, 0x6e, 0x73, 0x65, 0x2f, 0x4d, 0x61, 0x74, 0x4d, 0x75, 0x6c, 0x00,
  0xd0, 0xfc, 0xff, 0xff, 0xda, 0xfd, 0xff, 0xff, 0x04, 0x00, 0x00, 0x00,
  0x08, 0x00, 0x00, 0x00, 0xff, 0xff, 0xff, 0xff, 0x70, 0x00, 0x00, 0x00,
  0x00, 0x00, 0x0e, 0x00, 0x18, 0x00, 0x08, 0x00, 0x07, 0x00, 0x0c, 0x00,
  0x10, 0x00, 0x14, 0x00, 0x0e, 0x00, 0x00, 0x00, 0x00, 0x00, 0x00, 0x02,
  0x10, 0x00, 0x00, 0x00, 0x06, 0x00, 0x00, 0x00, 0x10, 0x00, 0x00, 0x00,
  0x2c, 0x00, 0x00, 0x00, 0x01, 0x00, 0x00, 0x00, 0x02, 0x00, 0x00, 0x00,
  0x18, 0x00, 0x00, 0x00, 0x73, 0x65, 0x71, 0x75, 0x65, 0x6e, 0x74, 0x69,
  0x61, 0x6c, 0x2f, 0x66, 0x6c, 0x61, 0x74, 0x74, 0x65, 0x6e, 0x2f, 0x43,
  0x6f, 0x6e, 0x73, 0x74, 0x00, 0x00, 0x00, 0x00, 0x38, 0xfd, 0xff, 0xff,
  0x42, 0xfe, 0xff, 0xff, 0x04, 0x00, 0x00, 0x00, 0x0c, 0x00, 0x00, 0x00,
  0x18, 0x36, 0xdd, 0x3f, 0x65, 0x44, 0x76, 0xc0, 0xb8, 0x56, 0x00, 0x3e,
  0x26, 0xfe, 0xff, 0xff, 0x10, 0x00, 0x00, 0x00, 0x05, 0x00, 0x00, 0x00,
  0x10, 0x00, 0x00, 0x00, 0x44, 0x00, 0x00, 0x00, 0x01, 0x00, 0x00, 0x00,
  0x03, 0x00, 0x00, 0x00, 0x32, 0x00, 0x00, 0x00, 0x73, 0x65, 0x71, 0x75,
  0x65, 0x6e, 0x74, 0x69, 0x61, 0x6c, 0x2f, 0x64, 0x65, 0x6e, 0x73, 0x65,
  0x5f, 0x31, 0x2f, 0x42, 0x69, 0x61, 0x73, 0x41, 0x64, 0x64, 0x2f, 0x52,
  0x65, 0x61, 0x64, 0x56, 0x61, 0x72, 0x69, 0x61, 0x62, 0x6c, 0x65, 0x4f,
  0x70, 0x2f, 0x72, 0x65, 0x73, 0x6f, 0x75, 0x72, 0x63, 0x65, 0x00, 0x00,
  0xa8, 0xfd, 0xff, 0xff, 0xb2, 0xfe, 0xff, 0xff, 0x04, 0x00, 0x00, 0x00,
  0x40, 0x00, 0x00, 0x00, 0x8b, 0xa3, 0xc5, 0xbf, 0x08, 0x58, 0x34, 0x3f,
  0x1c, 0xe9, 0xa2, 0xbf, 0xd2, 0x77, 0xba, 0xbf, 0xde, 0x46, 0xca, 0xbf,
  0x28, 0xde, 0xf2, 0xbd, 0x2f, 0xb1, 0x2c, 0x40, 0x80, 0x57, 0x7a, 0xbe,
  0xe9, 0x4a, 0x68, 0x40, 0x38, 0xf1, 0x21, 0xbf, 0x69, 0x29, 0x95, 0xbe,
  0x29, 0x57, 0x43, 0x40, 0x7f, 0x2d, 0xd5, 0x3e, 0xce, 0x02, 0xff, 0xbf,
  0x73, 0xad, 0x33, 0xbf, 0x76, 0xb2, 0x88, 0x3d, 0xca, 0xfe, 0xff, 0xff,
  0x10, 0x00, 0x00, 0x00, 0x04, 0x00, 0x00, 0x00, 0x10, 0x00, 0x00, 0x00,
  0x44, 0x00, 0x00, 0x00, 0x01, 0x00, 0x00, 0x00, 0x10, 0x00, 0x00, 0x00,
  0x30, 0x00, 0x00, 0x00, 0x73, 0x65, 0x71, 0x75, 0x65, 0x6e, 0x74, 0x69,
  0x61, 0x6c, 0x2f, 0x64, 0x65, 0x6e, 0x73, 0x65, 0x2f, 0x42, 0x69, 0x61,
  0x73, 0x41, 0x64, 0x64, 0x2f, 0x52, 0x65, 0x61, 0x64, 0x56, 0x61, 0x72,
  0x69, 0x61, 0x62, 0x6c, 0x65, 0x4f, 0x70, 0x2f, 0x72, 0x65, 0x73, 0x6f,
  0x75, 0x72, 0x63, 0x65, 0x00, 0x00, 0x00, 0x00, 0x4c, 0xfe, 0xff, 0xff,
  0x56, 0xff, 0xff, 0xff, 0x04, 0x00, 0x00, 0x00, 0x40, 0x00, 0x00, 0x00,
  0xa7, 0x10, 0x67, 0xbf, 0x85, 0xa2, 0x11, 0xc0, 0xff, 0x22, 0x53, 0x3e,
  0x16, 0x02, 0xce, 0x3f, 0x5a, 0xa9, 0xe1, 0x3f, 0x7c, 0x4f, 0x3c, 0xc0,
  0xbb, 0x17, 0xd2, 0x3d, 0x5e, 0xec, 0x55, 0xc0, 0xba, 0xdc, 0x42, 0xc0,
  0xd1, 0xdb, 0xcc, 0xbf, 0xf8, 0xca, 0xe8, 0x3e, 0x10, 0x90, 0x7f, 0x3d,
  0xaf, 0x91, 0xb9, 0xbf, 0x4a, 0x56, 0xcb, 0x3e, 0x12, 0x21, 0x0b, 0x40,
  0xa9, 0x17, 0x6e, 0x3f, 0x6e, 0xff, 0xff, 0xff, 0x10, 0x00, 0x00, 0x00,
  0x03, 0x00, 0x00, 0x00, 0x10, 0x00, 0x00, 0x00, 0x48, 0x00, 0x00, 0x00,
  0x01, 0x00, 0x00, 0x00, 0x10, 0x00, 0x00, 0x00, 0x33, 0x00, 0x00, 0x00,
  0x73, 0x65, 0x71, 0x75, 0x65, 0x6e, 0x74, 0x69, 0x61, 0x6c, 0x2f, 0x63,
  0x6f, 0x6e, 0x76, 0x32, 0x64, 0x5f, 0x31, 0x2f, 0x42, 0x69, 0x61, 0x73,
  0x41, 0x64, 0x64, 0x2f, 0x52, 0x65, 0x61, 0x64, 0x56, 0x61, 0x72, 0x69,
  0x61, 0x62, 0x6c, 0x65, 0x4f, 0x70, 0x2f, 0x72, 0x65, 0x73, 0x6f, 0x75,
  0x72, 0x63, 0x65, 0x00, 0x04, 0x00, 0x06, 0x00, 0x04, 0x00, 0x00, 0x00,
  0x00, 0x00, 0x06, 0x00, 0x08, 0x00, 0x04, 0x00, 0x06, 0x00, 0x00, 0x00,
  0x04, 0x00, 0x00, 0x00, 0x20, 0x00, 0x00, 0x00, 0x23, 0x03, 0x6c, 0x3e,
  0xa4, 0x37, 0x01, 0xc0, 0x2c, 0x6d, 0x9c, 0xbf, 0x06, 0xfc, 0xb4, 0xbf,
  0xa4, 0x96, 0xb9, 0xbe, 0x7d, 0xfd, 0x4b, 0xc0, 0x03, 0x43, 0x64, 0xc0,
  0x3a, 0x93, 0x0f, 0xc0, 0x00, 0x00, 0x0e, 0x00, 0x14, 0x00, 0x04, 0x00,
  0x00, 0x00, 0x08, 0x00, 0x0c, 0x00, 0x10, 0x00, 0x0e, 0x00, 0x00, 0x00,
  0x10, 0x00, 0x00, 0x00, 0x02, 0x00, 0x00, 0x00, 0x10, 0x00, 0x00, 0x00,
  0x44, 0x00, 0x00, 0x00, 0x01, 0x00, 0x00, 0x00, 0x08, 0x00, 0x00, 0x00,
  0x31, 0x00, 0x00, 0x00, 0x73, 0x65, 0x71, 0x75, 0x65, 0x6e, 0x74, 0x69,
  0x61, 0x6c, 0x2f, 0x63, 0x6f, 0x6e, 0x76, 0x32, 0x64, 0x2f, 0x42, 0x69,
  0x61, 0x73, 0x41, 0x64, 0x64, 0x2f, 0x52, 0x65, 0x61, 0x64, 0x56, 0x61,
  0x72, 0x69, 0x61, 0x62, 0x6c, 0x65, 0x4f, 0x70, 0x2f, 0x72, 0x65, 0x73,
  0x6f, 0x75, 0x72, 0x63, 0x65, 0x00, 0x00, 0x00, 0x90, 0xff, 0xff, 0xff,
  0x14, 0x00, 0x18, 0x00, 0x04, 0x00, 0x00, 0x00, 0x08, 0x00, 0x0c, 0x00,
  0x10, 0x00, 0x00, 0x00, 0x00, 0x00, 0x14, 0x00, 0x14, 0x00, 0x00, 0x00,
  0x14, 0x00, 0x00, 0x00, 0x01, 0x00, 0x00, 0x00, 0x20, 0x00, 0x00, 0x00,
  0x44, 0x00, 0x00, 0x00, 0x2c, 0x00, 0x00, 0x00, 0x04, 0x00, 0x00, 0x00,
  0x01, 0x00, 0x00, 0x00, 0x40, 0x00, 0x00, 0x00, 0x03, 0x00, 0x00, 0x00,
  0x01, 0x00, 0x00, 0x00, 0x0c, 0x00, 0x00, 0x00, 0x63, 0x6f, 0x6e, 0x76,
  0x32, 0x64, 0x5f, 0x69, 0x6e, 0x70, 0x75, 0x74, 0x00, 0x00, 0x00, 0x00,
  0x04, 0x00, 0x00, 0x00, 0xff, 0xff, 0xff, 0xff, 0x40, 0x00, 0x00, 0x00,
  0x03, 0x00, 0x00, 0x00, 0x01, 0x00, 0x00, 0x00, 0xfc, 0xff, 0xff, 0xff,
  0x04, 0x00, 0x04, 0x00, 0x04, 0x00, 0x00, 0x00
};

unsigned int model_tflite_len = 13052;// Fill the int in `src/model.cc` here